{
  "version": "1.0",
  "truncation": null,
  "padding": null,
  "added_tokens": [
    {
      "id": 0,
      "content": "<|endoftext|>",
      "single_word": false,
      "lstrip": false,
      "rstrip": false,
      "normalized": false,
      "special": true
    },
    {
      "id": 1,
      "content": "<|fim_prefix|>",
      "single_word": false,
      "lstrip": false,
      "rstrip": false,
      "normalized": false,
      "special": true
    },
    {
      "id": 2,
      "content": "<|fim_suffix|>",
      "single_word": false,
      "lstrip": false,
      "rstrip": false,
      "normalized": false,
      "special": true
    },
    {
      "id": 3,
      "content": "<|fim_middle|>",
      "single_word": false,
      "lstrip": false,
      "rstrip": false,
      "normalized": false,
      "special": true
    },
    {
      "id": 4,
      "content": "<|pad|>",
      "single_word": false,
      "lstrip": false,
      "rstrip": false,
      "normalized": false,
      "special": true
    }
  ],
  "normalizer": null,
  "pre_tokenizer": {
    "type": "ByteLevel",
    "add_prefix_space": false,
    "trim_offsets": true,
    "use_regex": true
  },
  "post_processor": null,
  "decoder": {
    "type": "ByteLevel",
    "add_prefix_space": true,
    "trim_offsets": true,
    "use_regex": true
  },
  "model": {
    "type": "BPE",
    "dropout": null,
    "unk_token": null,
    "continuing_subword_prefix": null,
    "end_of_word_suffix": null,
    "fuse_unk": false,
    "byte_fallback": false,
    "ignore_merges": false,
    "vocab": {
      "<|endoftext|>": 0,
      "<|fim_prefix|>": 1,
      "<|fim_suffix|>": 2,
      "<|fim_middle|>": 3,
      "<|pad|>": 4,
      "!": 5,
      "\"": 6,
      "#": 7,
      "$": 8,
      "%": 9,
      "&": 10,
      "'": 11,
      "(": 12,
      ")": 13,
      "*": 14,
      "+": 15,
      ",": 16,
      "-": 17,
      ".": 18,
      "/": 19,
      "0": 20,
      "1": 21,
      "2": 22,
      "3": 23,
      "4": 24,
      "5": 25,
      "6": 26,
      "7": 27,
      "8": 28,
      "9": 29,
      ":": 30,
      ";": 31,
      "<": 32,
      "=": 33,
      ">": 34,
      "?": 35,
      "@": 36,
      "A": 37,
      "B": 38,
      "C": 39,
      "D": 40,
      "E": 41,
      "F": 42,
      "G": 43,
      "H": 44,
      "I": 45,
      "J": 46,
      "K": 47,
      "L": 48,
      "M": 49,
      "N": 50,
      "O": 51,
      "P": 52,
      "Q": 53,
      "R": 54,
      "S": 55,
      "T": 56,
      "U": 57,
      "V": 58,
      "W": 59,
      "X": 60,
      "Y": 61,
      "Z": 62,
      "[": 63,
      "\\": 64,
      "]": 65,
      "^": 66,
      "_": 67,
      "`": 68,
      "a": 69,
      "b": 70,
      "c": 71,
      "d": 72,
      "e": 73,
      "f": 74,
      "g": 75,
      "h": 76,
      "i": 77,
      "j": 78,
      "k": 79,
      "l": 80,
      "m": 81,
      "n": 82,
      "o": 83,
      "p": 84,
      "q": 85,
      "r": 86,
      "s": 87,
      "t": 88,
      "u": 89,
      "v": 90,
      "w": 91,
      "x": 92,
      "y": 93,
      "z": 94,
      "{": 95,
      "|": 96,
      "}": 97,
      "~": 98,
      "¡": 99,
      "¢": 100,
      "£": 101,
      "¤": 102,
      "¥": 103,
      "¦": 104,
      "§": 105,
      "¨": 106,
      "©": 107,
      "ª": 108,
      "«": 109,
      "¬": 110,
      "®": 111,
      "¯": 112,
      "°": 113,
      "±": 114,
      "²": 115,
      "³": 116,
      "´": 117,
      "µ": 118,
      "¶": 119,
      "·": 120,
      "¸": 121,
      "¹": 122,
      "º": 123,
      "»": 124,
      "¼": 125,
      "½": 126,
      "¾": 127,
      "¿": 128,
      "À": 129,
      "Á": 130,
      "Â": 131,
      "Ã": 132,
      "Ä": 133,
      "Å": 134,
      "Æ": 135,
      "Ç": 136,
      "È": 137,
      "É": 138,
      "Ê": 139,
      "Ë": 140,
      "Ì": 141,
      "Í": 142,
      "Î": 143,
      "Ï": 144,
      "Ð": 145,
      "Ñ": 146,
      "Ò": 147,
      "Ó": 148,
      "Ô": 149,
      "Õ": 150,
      "Ö": 151,
      "×": 152,
      "Ø": 153,
      "Ù": 154,
      "Ú": 155,
      "Û": 156,
      "Ü": 157,
      "Ý": 158,
      "Þ": 159,
      "ß": 160,
      "à": 161,
      "á": 162,
      "â": 163,
      "ã": 164,
      "ä": 165,
      "å": 166,
      "æ": 167,
      "ç": 168,
      "è": 169,
      "é": 170,
      "ê": 171,
      "ë": 172,
      "ì": 173,
      "í": 174,
      "î": 175,
      "ï": 176,
      "ð": 177,
      "ñ": 178,
      "ò": 179,
      "ó": 180,
      "ô": 181,
      "õ": 182,
      "ö": 183,
      "÷": 184,
      "ø": 185,
      "ù": 186,
      "ú": 187,
      "û": 188,
      "ü": 189,
      "ý": 190,
      "þ": 191,
      "ÿ": 192,
      "Ā": 193,
      "ā": 194,
      "Ă": 195,
      "ă": 196,
      "Ą": 197,
      "ą": 198,
      "Ć": 199,
      "ć": 200,
      "Ĉ": 201,
      "ĉ": 202,
      "Ċ": 203,
      "ċ": 204,
      "Č": 205,
      "č": 206,
      "Ď": 207,
      "ď": 208,
      "Đ": 209,
      "đ": 210,
      "Ē": 211,
      "ē": 212,
      "Ĕ": 213,
      "ĕ": 214,
      "Ė": 215,
      "ė": 216,
      "Ę": 217,
      "ę": 218,
      "Ě": 219,
      "ě": 220,
      "Ĝ": 221,
      "ĝ": 222,
      "Ğ": 223,
      "ğ": 224,
      "Ġ": 225,
      "ġ": 226,
      "Ģ": 227,
      "ģ": 228,
      "Ĥ": 229,
      "ĥ": 230,
      "Ħ": 231,
      "ħ": 232,
      "Ĩ": 233,
      "ĩ": 234,
      "Ī": 235,
      "ī": 236,
      "Ĭ": 237,
      "ĭ": 238,
      "Į": 239,
      "į": 240,
      "İ": 241,
      "ı": 242,
      "Ĳ": 243,
      "ĳ": 244,
      "Ĵ": 245,
      "ĵ": 246,
      "Ķ": 247,
      "ķ": 248,
      "ĸ": 249,
      "Ĺ": 250,
      "ĺ": 251,
      "Ļ": 252,
      "ļ": 253,
      "Ľ": 254,
      "ľ": 255,
      "Ŀ": 256,
      "ŀ": 257,
      "Ł": 258,
      "ł": 259,
      "Ń": 260,
      "ĠĠ": 261,
      "ĠĠĠĠ": 262,
      "ĠĠĠ": 263,
      "ĊĠĠĠĠ": 264,
      "se": 265,
      "in": 266,
      "re": 267,
      "ĊĠĠĠĠĠĠĠ": 268,
      "ĊĠĠĠĠĠĠĠĠ": 269,
      "Ġt": 270,
      "on": 271,
      "or": 272,
      "er": 273,
      "ĊĠĠĠ": 274,
      "at": 275,
      "Ġi": 276,
      "st": 277,
      "le": 278,
      "Ġa": 279,
      "Ġ=": 280,
      "lf": 281,
      "self": 282,
      "de": 283,
      "he": 284,
      "me": 285,
      "Ġf": 286,
      "Ġc": 287,
      "ĠĠĠĠĠĠĠĠ": 288,
      "ĊĠĠĠĠĠĠĠĠĠĠĠ": 289,
      "al": 290,
      "ar": 291,
      "Ġself": 292,
      "en": 293,
      "Ġre": 294,
      "\"\"": 295,
      "it": 296,
      "Ġthe": 297,
      "ur": 298,
      "ce": 299,
      "Ġp": 300,
      "Ġo": 301,
      "Ġs": 302,
      "Ġn": 303,
      "Ġb": 304,
      "Ġ'": 305,
      "):": 306,
      "ion": 307,
      "Ġe": 308,
      "an": 309,
      "ing": 310,
      "--": 311,
      "Ġin": 312,
      "Ġif": 313,
      "ct": 314,
      "ame": 315,
      "Ġw": 316,
      "mp": 317,
      "Ġ#": 318,
      "._": 319,
      "ut": 320,
      "ĠĠĠĠĠĠĠ": 321,
      "def": 322,
      "ro": 323,
      "Ġ_": 324,
      "urn": 325,
      "turn": 326,
      "lo": 327,
      "ss": 328,
      "Ġm": 329,
      "ĊĊĠĠĠ": 330,
      "ile": 331,
      "ot": 332,
      "Ġis": 333,
      "ĊĠĠĠĠĠĠĠĠĠĠĠĠĠĠĠ": 334,
      "Ġd": 335,
      "un": 336,
      "Ġreturn": 337,
      "li": 338,
      "ue": 339,
      "co": 340,
      "ge": 341,
      "()": 342,
      "ad": 343,
      "one": 344,
      "ed": 345,
      "ĊĠĠĠĠĠĠĠĠĠĠĠĠĠĠĠĠ": 346,
      "Ġdef": 347,
      "\"\"\"": 348,
      "il": 349,
      "ck": 350,
      "ra": 351,
      "Ġan": 352,
      "Ġ(": 353,
      "pt": 354,
      "Ġto": 355,
      "nt": 356,
      "None": 357,
      "la": 358,
      "Ġ\"": 359,
      "name": 360,
      "ort": 361,
      "es": 362,
      "th": 363,
      "',": 364,
      "ex": 365,
      "ul": 366,
      "Ġfor": 367,
      "__": 368,
      "ror": 369,
      "Ġst": 370,
      "pe": 371,
      "ch": 372,
      "Ġnot": 373,
      "Ġex": 374,
      "----": 375,
      "od": 376,
      "Ġ\"\"\"": 377,
      "ath": 378,
      "ĠNone": 379,
      "lin": 380,
      "Ġof": 381,
      "Ġand": 382,
      "di": 383,
      "get": 384,
      "pp": 385,
      "ĠT": 386,
      "Ġco": 387,
      "ver": 388,
      "Ġth": 389,
      "is": 390,
      "Er": 391,
      "Error": 392,
      "ri": 393,
      "all": 394,
      "val": 395,
      "Ġbe": 396,
      "ter": 397,
      "Ġse": 398,
      "ve": 399,
      "ate": 400,
      "mport": 401,
      "and": 402,
      "ke": 403,
      "ata": 404,
      "ĊĊĠĠĠĠĠĠĠ": 405,
      "Ġh": 406,
      "file": 407,
      "fi": 408,
      "ult": 409,
      "as": 410,
      "ext": 411,
      "Ġfile": 412,
      "ab": 413,
      "##": 414,
      "ment": 415,
      "end": 416,
      "Ġcon": 417,
      "cept": 418,
      "ack": 419,
      "ise": 420,
      "ĊĠĠĠĠĠĠĠĠĠĠĠĠĠĠĠĠĠĠĠ": 421,
      "Ġ0": 422,
      "rom": 423,
      "\",": 424,
      "lass": 425,
      "op": 426,
      "ent": 427,
      "Ġu": 428,
      "Ġ1": 429,
      "ser": 430,
      "Ġ+": 431,
      "iz": 432,
      "ect": 433,
      "path": 434,
      "line": 435,
      "Ġor": 436,
      "ase": 437,
      "Ġra": 438,
      "ist": 439,
      "ith": 440,
      "('": 441,
      "value": 442,
      "ation": 443,
      "bj": 444,
      "Ġas": 445,
      "')": 446,
      "gs": 447,
      "ype": 448,
      "ma": 449,
      "sp": 450,
      "Ġraise": 451,
      "lse": 452,
      "ĠI": 453,
      "ry": 454,
      "id": 455,
      "Ġelse": 456,
      "Ġit": 457,
      "code": 458,
      "ĠS": 459,
      "ime": 460,
      "Ġde": 461,
      "Ġlo": 462,
      "set": 463,
      "Ġname": 464,
      "Ġ==": 465,
      "ite": 466,
      "Ġ__": 467,
      "Ġme": 468,
      "Ġma": 469,
      "':": 470,
      "Ġ%": 471,
      "Ġ-": 472,
      "ys": 473,
      "(\"": 474,
      "up": 475,
      "ule": 476,
      "Ġby": 477,
      "))": 478,
      "con": 479,
      "ff": 480,
      "--------": 481,
      "ers": 482,
      "ly": 483,
      "to": 484,
      "**": 485,
      "um": 486,
      "Ġ[": 487,
      "len": 488,
      "ction": 489,
      "able": 490,
      "read": 491,
      "art": 492,
      "odule": 493,
      "Ġso": 494,
      "ize": 495,
      "so": 496,
      "Ġimport": 497,
      "ĊĊ": 498,
      "ĊĠĠĠĠĠĠĠĠĠĠĠĠĠĠĠĠĠĠĠĠĠĠĠĠ": 499,
      "Ġstr": 500,
      "ĠC": 501,
      "list": 502,
      "ĠF": 503,
      "Re": 504,
      "Ġdi": 505,
      "ĠA": 506,
      "age": 507,
      "Ġexcept": 508,
      "for": 509,
      "class": 510,
      "\")": 511,
      "Ġal": 512,
      "Ġpro": 513,
      "ance": 514,
      "Ġwith": 515,
      "Ġg": 516,
      "te": 517,
      "bu": 518,
      "out": 519,
      "mple": 520,
      "dir": 521,
      "Ġsu": 522,
      "int": 523,
      "lib": 524,
      "ode": 525,
      "et": 526,
      "Ġar": 527,
      "bject": 528,
      "Ġch": 529,
      "Ġr": 530,
      "key": 531,
      "==": 532,
      "tr": 533,
      "ure": 534,
      "ĠP": 535,
      "sed": 536,
      "app": 537,
      "Ġthat": 538,
      "__(": 539,
      ".__": 540,
      "data": 541,
      "Ġvalue": 542,
      "os": 543,
      "Ġfrom": 544,
      "el": 545,
      "thod": 546,
      "Ġen": 547,
      "Ġtry": 548,
      "Ġos": 549,
      "Ġon": 550,
      "rea": 551,
      "Ġne": 552,
      "qu": 553,
      "Ġdata": 554,
      "ption": 555,
      "ol": 556,
      "sion": 557,
      "Ġwh": 558,
      "str": 559,
      "ow": 560,
      "Ġcont": 561,
      "rue": 562,
      "che": 563,
      "mat": 564,
      "Ġ*": 565,
      "ms": 566,
      "####": 567,
      "ctor": 568,
      "ir": 569,
      "ild": 570,
      "Ġget": 571,
      "ary": 572,
      "ig": 573,
      "cess": 574,
      "pre": 575,
      "ci": 576,
      "pro": 577,
      "fo": 578,
      "ader": 579,
      "args": 580,
      "sult": 581,
      "Ġhe": 582,
      "Ġpath": 583,
      "ĠThe": 584,
      "error": 585,
      "Ġline": 586,
      "put": 587,
      "ic": 588,
      "ĠD": 589,
      "py": 590,
      "ca": 591,
      "urce": 592,
      "ault": 593,
      "from": 594,
      "RE": 595,
      "Ġobject": 596,
      "ace": 597,
      "rent": 598,
      "Ġare": 599,
      "Ġthis": 600,
      "inst": 601,
      "rite": 602,
      "00": 603,
      "Ġset": 604,
      "tes": 605,
      "fix": 606,
      "Ġwe": 607,
      "cl": 608,
      "Ġ2": 609,
      "par": 610,
      "import": 611,
      "IN": 612,
      "que": 613,
      "Ġdo": 614,
      "ding": 615,
      "sh": 616,
      "ork": 617,
      "),": 618,
      "ument": 619,
      "ĠN": 620,
      "alse": 621,
      "ĠO": 622,
      "time": 623,
      "Ġsys": 624,
      "ĠM": 625,
      "ind": 626,
      "thon": 627,
      "rame": 628,
      "ive": 629,
      "ĠE": 630,
      ".\"\"\"": 631,
      "comp": 632,
      "Ġun": 633,
      "mm": 634,
      "Ġpa": 635,
      "ator": 636,
      "init": 637,
      "append": 638,
      "Ġbu": 639,
      "red": 640,
      "Ġat": 641,
      "lif": 642,
      "ĊĠĠĠĠĠĠĠĠĠĠĠĠĠĠĠĠĠĠĠĠĠĠĠ": 643,
      "back": 644,
      "Ġfun": 645,
      "Ġmodule": 646,
      "Ġlen": 647,
      "ty": 648,
      "Ġ<": 649,
      "Ġsh": 650,
      "ther": 651,
      "Ġpre": 652,
      "ill": 653,
      "Ġ{": 654,
      "ER": 655,
      "Ġlist": 656,
      "rib": 657,
      "ip": 658,
      "Ġelif": 659,
      "ds": 660,
      "Ġy": 661,
      "Ġpar": 662,
      "ĠW": 663,
      "ust": 664,
      "version": 665,
      "Ġcomp": 666,
      "no": 667,
      ").": 668,
      "lat": 669,
      "low": 670,
      "rint": 671,
      "ribut": 672,
      "size": 673,
      "type": 674,
      "der": 675,
      "add": 676,
      "text": 677,
      "Ġstring": 678,
      "ning": 679,
      "Ġcan": 680,
      "Ġout": 681,
      "cur": 682,
      "Ġmethod": 683,
      "ken": 684,
      "wa": 685,
      "Ġinst": 686,
      "iter": 687,
      "Ġtime": 688,
      "Ġwhe": 689,
      "led": 690,
      "Ġresult": 691,
      "mb": 692,
      "Ġad": 693,
      "vi": 694,
      "Ġarg": 695,
      "util": 696,
      "lic": 697,
      "var": 698,
      "andl": 699,
      "est": 700,
      "ress": 701,
      "Ġhas": 702,
      "us": 703,
      "vent": 704,
      "Return": 705,
      "Ġ>": 706,
      "ĠIf": 707,
      "und": 708,
      "Ġnew": 709,
      "ON": 710,
      "])": 711,
      "ses": 712,
      "'t": 713,
      "Ġwill": 714,
      "Ġkey": 715,
      "coding": 716,
      "ĠTrue": 717,
      "----------------": 718,
      "ĠL": 719,
      "ta": 720,
      "Ġcall": 721,
      "write": 722,
      "jo": 723,
      "Ġl": 724,
      "base": 725,
      "Ġ--": 726,
      "tern": 727,
      "lose": 728,
      "Ġle": 729,
      "ec": 730,
      "Ġop": 731,
      "em": 732,
      "uld": 733,
      "ĠU": 734,
      "ĠR": 735,
      "lock": 736,
      "mplement": 737,
      "ME": 738,
      "Ġ.": 739,
      "his": 740,
      "ĠB": 741,
      "ĠV": 742,
      "mo": 743,
      "AT": 744,
      "ded": 745,
      "su": 746,
      "Ġread": 747,
      "ĊĠĠĠĠĠĠĠĠĠĠĠĠĠĠĠĠĠĠĠĠĠĠĠĠĠĠĠĠĠĠĠĠ": 748,
      "ython": 749,
      "Ġerror": 750,
      "``": 751,
      "Ġtype": 752,
      "Ġother": 753,
      "module": 754,
      "HA": 755,
      "if": 756,
      "ackage": 757,
      "ally": 758,
      "ream": 759,
      "():": 760,
      "ST": 761,
      "join": 762,
      "unk": 763,
      "Ġlin": 764,
      "Ġclass": 765,
      "pa": 766,
      "fig": 767,
      "ated": 768,
      "attr": 769,
      "ception": 770,
      "====": 771,
      "instance": 772,
      "ĠFalse": 773,
      "vel": 774,
      "col": 775,
      "Ġall": 776,
      "Ġk": 777,
      "andle": 778,
      "ener": 779,
      "umb": 780,
      "atch": 781,
      "ffer": 782,
      "act": 783,
      "****": 784,
      "mmand": 785,
      "tra": 786,
      "alue": 787,
      "Ġprint": 788,
      ":'": 789,
      "''": 790,
      "LE": 791,
      "cket": 792,
      "ib": 793,
      "peci": 794,
      "ssage": 795,
      "andler": 796,
      "rector": 797,
      "########": 798,
      "uture": 799,
      "cal": 800,
      "gist": 801,
      "ould": 802,
      "ich": 803,
      "']": 804,
      "rep": 805,
      "Ġdefault": 806,
      "space": 807,
      "Ġ('": 808,
      "Ġfunction": 809,
      "quest": 810,
      "OR": 811,
      "do": 812,
      "Ġsub": 813,
      "Ġuse": 814,
      "Ġchar": 815,
      "DE": 816,
      "ĠĠĠĠĠ": 817,
      "iv": 818,
      "reak": 819,
      "ok": 820,
      "VE": 821,
      "Ġisinstance": 822,
      "ĠThis": 823,
      "Ġbytes": 824,
      "sg": 825,
      "Ġcode": 826,
      "ull": 827,
      "form": 828,
      "Ġadd": 829,
      "ave": 830,
      "ne": 831,
      "alueError": 832,
      "Ġpass": 833,
      "cri": 834,
      "pi": 835,
      "Ġ3": 836,
      "arning": 837,
      "filename": 838,
      "ht": 839,
      "unt": 840,
      "Ġ[]": 841,
      "im": 842,
      "'s": 843,
      "iel": 844,
      "ound": 845,
      "Ġx": 846,
      "ran": 847,
      "ine": 848,
      "ĠValueError": 849,
      "Ġmode": 850,
      "source": 851,
      "Ġused": 852,
      "info": 853,
      "Ġoption": 854,
      "start": 855,
      "by": 856,
      "fun": 857,
      "po": 858,
      "format": 859,
      "per": 860,
      "Ġcur": 861,
      "Ex": 862,
      "arg": 863,
      "char": 864,
      "ix": 865,
      "Ġend": 866,
      "utils": 867,
      "Ġargument": 868,
      "umber": 869,
      "Ġlog": 870,
      "not": 871,
      "sing": 872,
      "lit": 873,
      "frame": 874,
      "mit": 875,
      "Ġwhich": 876,
      "pos": 877,
      "own": 878,
      "ies": 879,
      "Ġstart": 880,
      "md": 881,
      "Ġwhen": 882,
      "ial": 883,
      "!=": 884,
      "rary": 885,
      "yn": 886,
      "ep": 887,
      "dex": 888,
      "nd": 889,
      "ail": 890,
      "Ġ!=": 891,
      "['": 892,
      "reate": 893,
      "Ġfilename": 894,
      "Ġmust": 895,
      "ger": 896,
      "call": 897,
      "ces": 898,
      "ain": 899,
      "ecut": 900,
      "nect": 901,
      "ĠĠĠĠĠĠ": 902,
      "ity": 903,
      "lags": 904,
      "Ġmsg": 905,
      "clu": 906,
      "uple": 907,
      "dent": 908,
      "pport": 909,
      "method": 910,
      "Ġno": 911,
      "ange": 912,
      "Ġany": 913,
      "rectory": 914,
      "pes": 915,
      "work": 916,
      "bug": 917,
      "fe": 918,
      "Ġ+=": 919,
      "Ġ@": 920,
      "Ġfiles": 921,
      "Ġmax": 922,
      "AL": 923,
      "string": 924,
      "ask": 925,
      "run": 926,
      "build": 927,
      "Ġint": 928,
      "ant": 929,
      "tribut": 930,
      "cript": 931,
      "alled": 932,
      "Ġspeci": 933,
      "Ġpo": 934,
      "inal": 935,
      "process": 936,
      "ren": 937,
      "ore": 938,
      "IT": 939,
      "Ġwa": 940,
      "Ġwhile": 941,
      "ĠNot": 942,
      "In": 943,
      "yst": 944,
      "Ġrun": 945,
      "Ġbreak": 946,
      "ĊĊĠĠĠĠĠĠĠĠĠĠĠ": 947,
      "ord": 948,
      "Ġsource": 949,
      "Ġshould": 950,
      "vir": 951,
      "..": 952,
      "Ġtra": 953,
      "ard": 954,
      "Ġdist": 955,
      "HAVE": 956,
      "Ġbase": 957,
      "ten": 958,
      "viron": 959,
      "SE": 960,
      "Ġab": 961,
      "ield": 962,
      "Ġargs": 963,
      "close": 964,
      "obj": 965,
      "arch": 966,
      "tocol": 967,
      "win": 968,
      "gth": 969,
      "Ġhave": 970,
      "msg": 971,
      "Ġapp": 972,
      "open": 973,
      "Ġ->": 974,
      "ĠPython": 975,
      "emp": 976,
      "Ġj": 977,
      "Con": 978,
      "Ġca": 979,
      "option": 980,
      "Ġla": 981,
      "opt": 982,
      "default": 983,
      "Ġoutput": 984,
      "\":": 985,
      "ll": 986,
      "[:": 987,
      "64": 988,
      "valid": 989,
      "iler": 990,
      "main": 991,
      "lace": 992,
      "rc": 993,
      "ĠH": 994,
      "dist": 995,
      "dict": 996,
      "Ġ:": 997,
      "'):": 998,
      "buffer": 999,
      "map": 1000,
      "(_": 1001,
      "loop": 1002,
      "sert": 1003,
      "Ġbut": 1004,
      "oth": 1005,
      "ystem": 1006,
      "use": 1007,
      "ition": 1008,
      "lob": 1009,
      "Ġheader": 1010,
      "root": 1011,
      "irst": 1012,
      "Ġexc": 1013,
      "Ġonly": 1014,
      "],": 1015,
      "tent": 1016,
      "ancel": 1017,
      "fd": 1018,
      "ek": 1019,
      "result": 1020,
      "ong": 1021,
      "Ġsize": 1022,
      "Ġnumber": 1023,
      "aders": 1024,
      "om": 1025,
      "Ġtest": 1026,
      "Ġmay": 1027,
      "Ġencoding": 1028,
      "True": 1029,
      "attern": 1030,
      "ign": 1031,
      "Ġloop": 1032,
      "().": 1033,
      "Ġexception": 1034,
      "stat": 1035,
      "log": 1036,
      "ou": 1037,
      "min": 1038,
      "Ġ|": 1039,
      "ĊĠĠĠĠĠĠĠĠĠĠĠĠĠĠĠĠĠĠĠĠĠĠĠĠĠĠĠ": 1040,
      "AR": 1041,
      "with": 1042,
      "Ġone": 1043,
      "FI": 1044,
      "split": 1045,
      "gister": 1046,
      "rit": 1047,
      "clude": 1048,
      "ac": 1049,
      "uct": 1050,
      "Ġ**": 1051,
      "Ġwork": 1052,
      "Ġcurrent": 1053,
      "mode": 1054,
      "Ġprefix": 1055,
      "NT": 1056,
      "Ġac": 1057,
      "Ġfirst": 1058,
      "Ġ'.": 1059,
      "new": 1060,
      "Ġv": 1061,
      "ho": 1062,
      "config": 1063,
      "ribution": 1064,
      "Ġformat": 1065,
      "heck": 1066,
      "Ġframe": 1067,
      "ĠIn": 1068,
      "compile": 1069,
      "Ġbuild": 1070,
      "Ġopen": 1071,
      "func": 1072,
      "stra": 1073,
      "Ġser": 1074,
      "'.": 1075,
      "err": 1076,
      "(),": 1077,
      "roup": 1078,
      "Ġcommand": 1079,
      "bytes": 1080,
      "ations": 1081,
      "())": 1082,
      "qui": 1083,
      "vari": 1084,
      "Ġ/": 1085,
      "ĠReturn": 1086,
      "rapp": 1087,
      "Ġup": 1088,
      "03": 1089,
      "sport": 1090,
      "queue": 1091,
      "='": 1092,
      "kw": 1093,
      "Ġversion": 1094,
      "level": 1095,
      "object": 1096,
      "eno": 1097,
      "date": 1098,
      "plat": 1099,
      "mplemented": 1100,
      "ay": 1101,
      "Ġdirectory": 1102,
      "Ġtext": 1103,
      "state": 1104,
      "Ġdoes": 1105,
      "Ġrep": 1106,
      "ĠG": 1107,
      "ceback": 1108,
      "Ġuser": 1109,
      "Ġdir": 1110,
      "CE": 1111,
      "sys": 1112,
      "Ġsupport": 1113,
      "prefix": 1114,
      "sent": 1115,
      "Ġpackage": 1116,
      "Ġcharact": 1117,
      "PE": 1118,
      "Ġpart": 1119,
      "fied": 1120,
      "we": 1121,
      "ĠRe": 1122,
      "rip": 1123,
      "Ġ{}": 1124,
      "limit": 1125,
      "ĠOS": 1126,
      "Ġevent": 1127,
      "NO": 1128,
      "parse": 1129,
      "\\\\": 1130,
      "item": 1131,
      "cache": 1132,
      "Ġinstance": 1133,
      "idth": 1134,
      "ls": 1135,
      "of": 1136,
      "Ke": 1137,
      "XX": 1138,
      "ĠĠĠĠĠĠĠĠĠĠĠĠĠĠĠĠ": 1139,
      "Ġlib": 1140,
      "Ġsocket": 1141,
      "Ġcontext": 1142,
      "lines": 1143,
      "nection": 1144,
      "Ġwas": 1145,
      "Ġchunk": 1146,
      "am": 1147,
      "std": 1148,
      "TE": 1149,
      "encode": 1150,
      "ting": 1151,
      "ub": 1152,
      "Ġmessage": 1153,
      "Ġcontain": 1154,
      "repr": 1155,
      "32": 1156,
      "AG": 1157,
      "Ġent": 1158,
      "lement": 1159,
      "kip": 1160,
      "Ġnext": 1161,
      "lobal": 1162,
      "row": 1163,
      "Ġcor": 1164,
      "wait": 1165,
      "Ġlines": 1166,
      "Ġtoken": 1167,
      "pec": 1168,
      "tribute": 1169,
      "Co": 1170,
      "cument": 1171,
      "ml": 1172,
      "quot": 1173,
      "Ġtran": 1174,
      "Pro": 1175,
      "Ġ4": 1176,
      "ree": 1177,
      "install": 1178,
      "Ġpos": 1179,
      "Ġparser": 1180,
      "SI": 1181,
      "max": 1182,
      "De": 1183,
      "Ġ)": 1184,
      "lect": 1185,
      "Ġav": 1186,
      "exc": 1187,
      "Ġcontin": 1188,
      "Ġinter": 1189,
      "Ġcalled": 1190,
      "Lo": 1191,
      "ref": 1192,
      "package": 1193,
      "ld": 1194,
      "Ġ``": 1195,
      "Ġstream": 1196,
      "token": 1197,
      "Ġcheck": 1198,
      "num": 1199,
      "arget": 1200,
      "Ġprocess": 1201,
      "python": 1202,
      "pect": 1203,
      "context": 1204,
      "Key": 1205,
      "CO": 1206,
      "bo": 1207,
      "res": 1208,
      "========": 1209,
      "UN": 1210,
      "find": 1211,
      "Ġdis": 1212,
      "tran": 1213,
      "********": 1214,
      "Ġfin": 1215,
      "url": 1216,
      "sub": 1217,
      "Ġthread": 1218,
      "sa": 1219,
      "user": 1220,
      "test": 1221,
      "=\"": 1222,
      "pace": 1223,
      "load": 1224,
      "files": 1225,
      "debug": 1226,
      "Ġback": 1227,
      "handle": 1228,
      "Ġinput": 1229,
      "ĠSt": 1230,
      "Implemented": 1231,
      "Ġinit": 1232,
      "Ġwrite": 1233,
      "check": 1234,
      "ory": 1235,
      "Ġcol": 1236,
      "Ġ'''": 1237,
      "cls": 1238,
      "fter": 1239,
      "mal": 1240,
      "count": 1241,
      "Ġtuple": 1242,
      "exit": 1243,
      "Ġover": 1244,
      "exception": 1245,
      "dirs": 1246,
      "################": 1247,
      "Ġserver": 1248,
      "Ġnames": 1249,
      "sock": 1250,
      "ĠEx": 1251,
      "vert": 1252,
      "Ġusing": 1253,
      "future": 1254,
      "Ġgiv": 1255,
      "Ġthen": 1256,
      "Ġstat": 1257,
      "Ġty": 1258,
      "IO": 1259,
      "ap": 1260,
      "Ġobj": 1261,
      "Ġcontinue": 1262,
      "\"),": 1263,
      "ĠNotImplemented": 1264,
      "ĠOSError": 1265,
      "Ġ\\": 1266,
      "cor": 1267,
      "tp": 1268,
      "Ġexist": 1269,
      "[-": 1270,
      "other": 1271,
      "move": 1272,
      "Ġlast": 1273,
      "Ġ'-": 1274,
      "Ġassert": 1275,
      "MA": 1276,
      "du": 1277,
      "Ġimplement": 1278,
      "Ġopt": 1279,
      "ters": 1280,
      "Ġyield": 1281,
      "UT": 1282,
      "Ġcase": 1283,
      "Ġfunc": 1284,
      "arnings": 1285,
      "ach": 1286,
      "Ġiter": 1287,
      "cmd": 1288,
      "script": 1289,
      "ence": 1290,
      "link": 1291,
      "temp": 1292,
      "ght": 1293,
      "Ġoff": 1294,
      "pped": 1295,
      "options": 1296,
      "False": 1297,
      "KE": 1298,
      "Ġinto": 1299,
      "ody": 1300,
      "Ġ`": 1301,
      "vars": 1302,
      "Ġ'/": 1303,
      ".\"": 1304,
      "LO": 1305,
      "Ġfull": 1306,
      "Ġgener": 1307,
      "ous": 1308,
      "Ġmod": 1309,
      "word": 1310,
      "lector": 1311,
      "losed": 1312,
      "spon": 1313,
      "TP": 1314,
      "Ġ'%": 1315,
      "encoding": 1316,
      "Ġmatch": 1317,
      "Ġlevel": 1318,
      "ĠDist": 1319,
      "ND": 1320,
      "PI": 1321,
      "swith": 1322,
      "Ġz": 1323,
      "coded": 1324,
      "Ġstate": 1325,
      "Ġsome": 1326,
      "sl": 1327,
      "like": 1328,
      "cii": 1329,
      "fore": 1330,
      "sha": 1331,
      "names": 1332,
      "keys": 1333,
      "ĠCon": 1334,
      "Ġmethods": 1335,
      "File": 1336,
      "Ġfound": 1337,
      "ilt": 1338,
      "server": 1339,
      "ypeError": 1340,
      "ternal": 1341,
      "Ġhandle": 1342,
      ":]": 1343,
      "lp": 1344,
      "onth": 1345,
      "loat": 1346,
      "Ġexecut": 1347,
      ">>": 1348,
      "ool": 1349,
      "CT": 1350,
      "St": 1351,
      "ush": 1352,
      "Ġfol": 1353,
      "las": 1354,
      "Ġtimeout": 1355,
      "ync": 1356,
      "Ġgiven": 1357,
      "Ġblock": 1358,
      "ang": 1359,
      "ak": 1360,
      "Handler": 1361,
      "ft": 1362,
      "header": 1363,
      "length": 1364,
      "bit": 1365,
      "handler": 1366,
      "ING": 1367,
      "mber": 1368,
      "rapper": 1369,
      "cation": 1370,
      "wn": 1371,
      "ĊĠĠĠĠĠĠĠĠĠĠ": 1372,
      "Ġ<=": 1373,
      "ailable": 1374,
      "Ġper": 1375,
      "Ġneed": 1376,
      "stract": 1377,
      "ML": 1378,
      "pend": 1379,
      "Ġ5": 1380,
      "ature": 1381,
      "mpty": 1382,
      "local": 1383,
      "Ġexp": 1384,
      "Ġallow": 1385,
      "perty": 1386,
      "ear": 1387,
      "ark": 1388,
      "((": 1389,
      "ĠDe": 1390,
      "event": 1391,
      "Ġcls": 1392,
      "environ": 1393,
      "--------------------------------": 1394,
      "12": 1395,
      "sep": 1396,
      "Ġextra": 1397,
      "ĠTypeError": 1398,
      "ible": 1399,
      "rect": 1400,
      "ready": 1401,
      "([": 1402,
      "iss": 1403,
      "arn": 1404,
      "Ġconfig": 1405,
      "Ġits": 1406,
      "Ġyou": 1407,
      "lease": 1408,
      "UL": 1409,
      "Ġvari": 1410,
      "strip": 1411,
      "Ġprotocol": 1412,
      "ĠWe": 1413,
      "Ġ>=": 1414,
      "ved": 1415,
      "Ġrequest": 1416,
      "items": 1417,
      "match": 1418,
      "gh": 1419,
      "index": 1420,
      "Ġflags": 1421,
      "Ġthere": 1422,
      "Exception": 1423,
      "actor": 1424,
      "mail": 1425,
      "ĠSe": 1426,
      "current": 1427,
      "width": 1428,
      "Ġ8": 1429,
      "register": 1430,
      "OF": 1431,
      "Ġcomple": 1432,
      "AD": 1433,
      "types": 1434,
      "licy": 1435,
      "Ġ&": 1436,
      "ized": 1437,
      "can": 1438,
      "fp": 1439,
      "flags": 1440,
      "Ġclose": 1441,
      "ffix": 1442,
      "IME": 1443,
      "Ġfind": 1444,
      "Ġobjects": 1445,
      "BU": 1446,
      "Base": 1447,
      "Ġnon": 1448,
      "com": 1449,
      "ffe": 1450,
      "ĠUn": 1451,
      "FL": 1452,
      "send": 1453,
      "decode": 1454,
      "Ġpi": 1455,
      "ram": 1456,
      "Ġmake": 1457,
      "Ġdict": 1458,
      ":'\\": 1459,
      "mod": 1460,
      "ates": 1461,
      "socket": 1462,
      "MP": 1463,
      "nore": 1464,
      "imple": 1465,
      "ost": 1466,
      "mportError": 1467,
      "ascii": 1468,
      "stream": 1469,
      "Ġmore": 1470,
      "Ġvalues": 1471,
      "Ġinstall": 1472,
      "modules": 1473,
      "ID": 1474,
      "Ġitem": 1475,
      "Ġlocal": 1476,
      "ast": 1477,
      "off": 1478,
      "SC": 1479,
      "has": 1480,
      "part": 1481,
      "Ġman": 1482,
      "ĠDistutils": 1483,
      "right": 1484,
      "Ġrange": 1485,
      "(*": 1486,
      "SS": 1487,
      "wise": 1488,
      "Ġbyte": 1489,
      "ctions": 1490,
      "cale": 1491,
      "doc": 1492,
      "Ġdistutils": 1493,
      "ined": 1494,
      "api": 1495,
      "Ġdon": 1496,
      "Ġcompile": 1497,
      "10": 1498,
      "ted": 1499,
      "Ġfuture": 1500,
      "Ġparse": 1501,
      "The": 1502,
      "cre": 1503,
      "Ġtemp": 1504,
      "Ġoffset": 1505,
      "lasses": 1506,
      "25": 1507,
      "Ġsort": 1508,
      "stru": 1509,
      "Ġbuffer": 1510,
      "Ġreturns": 1511,
      "address": 1512,
      "ĠKey": 1513,
      "Ġreturned": 1514,
      "ĊĠĠĠĠĠĠĠĠĠĠĠĠĠĠĠĠĠĠĠĠ": 1515,
      "Ġthan": 1516,
      "uper": 1517,
      "ble": 1518,
      "ĠJ": 1519,
      "Ġsame": 1520,
      "Ġinfo": 1521,
      "be": 1522,
      "group": 1523,
      "Ġcre": 1524,
      "Ġcount": 1525,
      "derr": 1526,
      "Ġhasattr": 1527,
      "the": 1528,
      "Ġ'__": 1529,
      "lag": 1530,
      "FC": 1531,
      "down": 1532,
      "riter": 1533,
      "task": 1534,
      "Ġwarnings": 1535,
      "cause": 1536,
      "tension": 1537,
      "Ġfinally": 1538,
      "Int": 1539,
      "FLAG": 1540,
      "Ġempty": 1541,
      "Ġ(\"": 1542,
      "chunk": 1543,
      "content": 1544,
      "Ġ>>>": 1545,
      "Ġoptions": 1546,
      "Ġsa": 1547,
      "command": 1548,
      "Ġsock": 1549,
      "Ġcontent": 1550,
      "Ġgetattr": 1551,
      "Se": 1552,
      "ag": 1553,
      "ead": 1554,
      "ts": 1555,
      "Ġpattern": 1556,
      "ĠCo": 1557,
      "Ġkw": 1558,
      "Ġspecified": 1559,
      "LI": 1560,
      "NA": 1561,
      "Name": 1562,
      "request": 1563,
      "Ġthey": 1564,
      "Ġerrors": 1565,
      "//": 1566,
      "Test": 1567,
      "ĊĠ": 1568,
      "Ġprovi": 1569,
      "Ġavailable": 1570,
      "pack": 1571,
      "Ġafter": 1572,
      "message": 1573,
      "Ġdel": 1574,
      "Ġcache": 1575,
      "Ġ['": 1576,
      "cancel": 1577,
      "parser": 1578,
      "\".": 1579,
      "ET": 1580,
      "Par": 1581,
      "Ġfollow": 1582,
      "TER": 1583,
      "Ġsuper": 1584,
      "disp": 1585,
      "property": 1586,
      "replace": 1587,
      "DO": 1588,
      "create": 1589,
      "very": 1590,
      "Ġglobal": 1591,
      "quence": 1592,
      "Ġheaders": 1593,
      "cs": 1594,
      "full": 1595,
      "nown": 1596,
      "ative": 1597,
      "its": 1598,
      "indow": 1599,
      "KEY": 1600,
      "inary": 1601,
      "Ġeach": 1602,
      "andom": 1603,
      "Ġparent": 1604,
      "Res": 1605,
      "sure": 1606,
      "rap": 1607,
      "Ġbefore": 1608,
      "spec": 1609,
      "Ġmult": 1610,
      "XML": 1611,
      "ems": 1612,
      "ging": 1613,
      "Ġcreate": 1614,
      "ann": 1615,
      "__,": 1616,
      "Ġenviron": 1617,
      "db": 1618,
      "ating": 1619,
      "Ġ'_": 1620,
      "abs": 1621,
      "frames": 1622,
      "Ġwait": 1623,
      "aries": 1624,
      "Ġinstead": 1625,
      "Ġroot": 1626,
      "Ġ*,": 1627,
      "Ġig": 1628,
      "Ġcmd": 1629,
      "izer": 1630,
      "Lib": 1631,
      "day": 1632,
      "Ġ\"\"": 1633,
      "Ġstd": 1634,
      "Ġarguments": 1635,
      "Ġcharacter": 1636,
      "Ġ'\\": 1637,
      "ither": 1638,
      "Ġaddress": 1639,
      "feren": 1640,
      "\"]": 1641,
      "RO": 1642,
      "TH": 1643,
      "only": 1644,
      "ily": 1645,
      "ilter": 1646,
      "Ġalso": 1647,
      "av": 1648,
      "block": 1649,
      "Ġnode": 1650,
      "Ġoper": 1651,
      "Comp": 1652,
      "sponse": 1653,
      "pop": 1654,
      "lient": 1655,
      "Ġattr": 1656,
      "ĊĠĠĠĠĠĠĠĠĠĠĠĠĠĠĠĠĠĠĠĠĠĠĠĠĠĠĠĠĠĠĠĠĠĠĠĠĠĠĠĠ": 1657,
      "offset": 1658,
      "Ġsy": 1659,
      "timeout": 1660,
      "Ġcharset": 1661,
      "platform": 1662,
      "22": 1663,
      "Ġquot": 1664,
      "des": 1665,
      "hen": 1666,
      "Ġres": 1667,
      "Ġext": 1668,
      "pping": 1669,
      "Ġbeen": 1670,
      "sol": 1671,
      "ĠOption": 1672,
      "ify": 1673,
      "Ġlineno": 1674,
      "ager": 1675,
      "face": 1676,
      "warn": 1677,
      "lineno": 1678,
      "exten": 1679,
      "ĠIt": 1680,
      "ĠNotImplementedError": 1681,
      "IG": 1682,
      "ormal": 1683,
      "'),": 1684,
      "Ġalready": 1685,
      "output": 1686,
      "startswith": 1687,
      "ritten": 1688,
      "wh": 1689,
      "Ġerr": 1690,
      "Ġact": 1691,
      "Ġindex": 1692,
      "copy": 1693,
      "ches": 1694,
      "Ġhere": 1695,
      "pected": 1696,
      "cle": 1697,
      "rict": 1698,
      "Ġorder": 1699,
      "Ġjust": 1700,
      "IL": 1701,
      "ites": 1702,
      "otal": 1703,
      "thing": 1704,
      "kwargs": 1705,
      "Ġinitial": 1706,
      "ince": 1707,
      "ingle": 1708,
      "thread": 1709,
      "Ġchild": 1710,
      "Ġwhere": 1711,
      "Ġtrue": 1712,
      "Ġextension": 1713,
      "els": 1714,
      "ĠRFC": 1715,
      "make": 1716,
      "ĠImportError": 1717,
      "cond": 1718,
      "Ġdocument": 1719,
      "Ġtask": 1720,
      "extra": 1721,
      "Ġraw": 1722,
      "rowser": 1723,
      "He": 1724,
      "Ġ6": 1725,
      "Ġconnection": 1726,
      "cape": 1727,
      "Class": 1728,
      "wo": 1729,
      "Ġq": 1730,
      "comple": 1731,
      "Ġmean": 1732,
      "extension": 1733,
      "Warning": 1734,
      "Ġval": 1735,
      "Ġscript": 1736,
      "ssion": 1737,
      "gest": 1738,
      "raw": 1739,
      "curses": 1740,
      "mt": 1741,
      "Ġdebug": 1742,
      "Ġlength": 1743,
      "itespace": 1744,
      "node": 1745,
      "til": 1746,
      "Ġlimit": 1747,
      "Ġass": 1748,
      "Ġcopy": 1749,
      "andard": 1750,
      "done": 1751,
      "reader": 1752,
      "ĠFor": 1753,
      "Ġfp": 1754,
      "fic": 1755,
      "Ġbuf": 1756,
      "Ġposs": 1757,
      "Ġcharacters": 1758,
      "iltin": 1759,
      "Library": 1760,
      "Type": 1761,
      "print": 1762,
      "Ġid": 1763,
      "Ġfloat": 1764,
      "coder": 1765,
      "Ġbecause": 1766,
      "library": 1767,
      "charset": 1768,
      ")]": 1769,
      "Ġfe": 1770,
      "Ġplat": 1771,
      "ha": 1772,
      "now": 1773,
      "ray": 1774,
      "Ġoptional": 1775,
      "Ġtypes": 1776,
      "ttribute": 1777,
      "Ġtarget": 1778,
      "callback": 1779,
      "]:": 1780,
      "indent": 1781,
      "ords": 1782,
      "uth": 1783,
      "outine": 1784,
      "Ġchange": 1785,
      "Ġenum": 1786,
      "Ġhelp": 1787,
      "compiler": 1788,
      "lication": 1789,
      "stdout": 1790,
      "src": 1791,
      "ĠError": 1792,
      "Ġindent": 1793,
      "ĊĠĠĠĠĠĠĠĠĠĠĠĠĠĠĠĠĠĠĠĠĠ": 1794,
      "Ġstruct": 1795,
      "Ġdistribution": 1796,
      "minator": 1797,
      "Ġvariable": 1798,
      "\"):": 1799,
      "EX": 1800,
      "Set": 1801,
      "ose": 1802,
      "tuple": 1803,
      "inter": 1804,
      "Ġsystem": 1805,
      "Ġsingle": 1806,
      "ersion": 1807,
      "ATE": 1808,
      "Ġdoesn": 1809,
      "ĠKeyError": 1810,
      "pattern": 1811,
      "Ġurl": 1812,
      "ular": 1813,
      "Ġbet": 1814,
      "mmon": 1815,
      "Ġlink": 1816,
      "winapi": 1817,
      "ĠOptional": 1818,
      "TTP": 1819,
      "cate": 1820,
      "case": 1821,
      "ĠQ": 1822,
      "Ġrequi": 1823,
      "Ġ\".": 1824,
      "exp": 1825,
      "ctionary": 1826,
      "iginal": 1827,
      "present": 1828,
      "ware": 1829,
      "Ġcallback": 1830,
      "man": 1831,
      "Ġsp": 1832,
      "utdown": 1833,
      "abc": 1834,
      "000": 1835,
      "gistry": 1836,
      "Ġtraceback": 1837,
      "ignal": 1838,
      "ION": 1839,
      "fer": 1840,
      "pen": 1841,
      "fiel": 1842,
      "Ġprog": 1843,
      "Ġparame": 1844,
      "traceback": 1845,
      "ams": 1846,
      "Ġtwo": 1847,
      "erver": 1848,
      "assed": 1849,
      "pending": 1850,
      ")):": 1851,
      "FF": 1852,
      "cated": 1853,
      "Ġcal": 1854,
      "tail": 1855,
      "Python": 1856,
      "].": 1857,
      "zip": 1858,
      "Ġemail": 1859,
      "Ġdone": 1860,
      "Ġstop": 1861,
      "child": 1862,
      "Ġlook": 1863,
      "NAME": 1864,
      "skip": 1865,
      "Ġport": 1866,
      "Ġeither": 1867,
      "Ġsuffix": 1868,
      "compress": 1869,
      "distribution": 1870,
      "DI": 1871,
      "RI": 1872,
      "og": 1873,
      "ĠXX": 1874,
      "Ġthem": 1875,
      "Ġ''": 1876,
      "ility": 1877,
      "execut": 1878,
      "paths": 1879,
      "ists": 1880,
      "errors": 1881,
      "lower": 1882,
      "85": 1883,
      "da": 1884,
      "ner": 1885,
      "target": 1886,
      "lem": 1887,
      "Ġflag": 1888,
      "ĊĠĠĠĠĠĠĠĠĠĠĠĠĠĠĠĠĠ": 1889,
      "Ġtop": 1890,
      "Ġstack": 1891,
      "keep": 1892,
      "ax": 1893,
      "Ġelement": 1894,
      "ĊĠĠĠĠĠĠĠĠĠĠĠĠĠĠĠĠĠĠĠĠĠĠĠĠĠĠĠĠĠĠĠ": 1895,
      "addr": 1896,
      "dispatch": 1897,
      "indows": 1898,
      "16": 1899,
      "Ġinclude": 1900,
      "lable": 1901,
      "Ġinterface": 1902,
      "eded": 1903,
      "used": 1904,
      "ven": 1905,
      "Ġqueue": 1906,
      "Ġmin": 1907,
      "Ġwithout": 1908,
      "old": 1909,
      "rectories": 1910,
      "SH": 1911,
      "closed": 1912,
      "oid": 1913,
      "Ġpassed": 1914,
      "ched": 1915,
      "argument": 1916,
      "hook": 1917,
      "Ġtransport": 1918,
      "Ġfd": 1919,
      "exe": 1920,
      "ways": 1921,
      "FILE": 1922,
      "CON": 1923,
      "PO": 1924,
      "RA": 1925,
      "fs": 1926,
      "raries": 1927,
      "Ġ7": 1928,
      "Ġlike": 1929,
      "org": 1930,
      "Ġarch": 1931,
      "Ġsha": 1932,
      "ĠBase": 1933,
      "erate": 1934,
      "Ġreferen": 1935,
      "Ġrepresent": 1936,
      "Ġfunctions": 1937,
      "argv": 1938,
      "opts": 1939,
      "tings": 1940,
      "****************": 1941,
      "headers": 1942,
      "Ġresource": 1943,
      "protocol": 1944,
      "ived": 1945,
      "Ġevents": 1946,
      "Iter": 1947,
      "Version": 1948,
      "gener": 1949,
      "ide": 1950,
      "ern": 1951,
      "stack": 1952,
      "Ġhash": 1953,
      "ĠRun": 1954,
      "ttributeError": 1955,
      "(?": 1956,
      "VER": 1957,
      "ake": 1958,
      "next": 1959,
      "include": 1960,
      "Ġio": 1961,
      "abstract": 1962,
      "Ġgroup": 1963,
      "Ġstrings": 1964,
      "parent": 1965,
      "Ġmodel": 1966,
      "...": 1967,
      "ĠReturns": 1968,
      "Ġlibrary": 1969,
      "actory": 1970,
      "ĠSee": 1971,
      "20": 1972,
      "://": 1973,
      "SO": 1974,
      "late": 1975,
      "ual": 1976,
      "Ġskip": 1977,
      "utf": 1978,
      "Ġdate": 1979,
      "Ġexit": 1980,
      "ish": 1981,
      "ols": 1982,
      "Ġunder": 1983,
      "Ġattribute": 1984,
      "curs": 1985,
      "pipe": 1986,
      "transport": 1987,
      "Ġver": 1988,
      "stderr": 1989,
      "del": 1990,
      "Ġfut": 1991,
      "lay": 1992,
      "Ġsepar": 1993,
      "Ġuntil": 1994,
      "Ġentry": 1995,
      "icode": 1996,
      "__.": 1997,
      "Ġselect": 1998,
      "Ġmodules": 1999,
      "point": 2000,
      "Content": 2001,
      "Not": 2002,
      "our": 2003,
      "sort": 2004,
      "ĊĊĊĠĠĠ": 2005,
      "oll": 2006,
      "AC": 2007,
      "En": 2008,
      "input": 2009,
      "ĊĠĠĠĠĠĠĠĠĠĠĠĠĠ": 2010,
      "last": 2011,
      "Ġhandler": 2012,
      "Ġdes": 2013,
      "qual": 2014,
      "cap": 2015,
      "ĠEOF": 2016,
      "oundary": 2017,
      "ĠXXX": 2018,
      "PY": 2019,
      "cv": 2020,
      "cy": 2021,
      "long": 2022,
      "Ġssl": 2023,
      "Ġsince": 2024,
      "ries": 2025,
      "Ġht": 2026,
      "Ġdiffe": 2027,
      "tring": 2028,
      "global": 2029,
      "pid": 2030,
      "Ġload": 2031,
      "Ġmap": 2032,
      "umn": 2033,
      "Ġencoded": 2034,
      "Ġimplementation": 2035,
      "SON": 2036,
      "ZE": 2037,
      "speci": 2038,
      "try": 2039,
      "Ġbody": 2040,
      "rop": 2041,
      "Ġmain": 2042,
      "ALL": 2043,
      "ULT": 2044,
      "=',": 2045,
      "RP": 2046,
      "Server": 2047,
      "mult": 2048,
      "remove": 2049,
      "Ġaction": 2050,
      "spa": 2051,
      "struct": 2052,
      "ĠNote": 2053,
      "TY": 2054,
      "body": 2055,
      "member": 2056,
      "Ġold": 2057,
      "ute": 2058,
      "Ġdefined": 2059,
      "diff": 2060,
      "ight": 2061,
      "Ġotherwise": 2062,
      "'\\": 2063,
      "ie": 2064,
      "ifi": 2065,
      "tz": 2066,
      "Ġiss": 2067,
      "den": 2068,
      "rou": 2069,
      "Ġmark": 2070,
      "Ġitems": 2071,
      "chars": 2072,
      "rst": 2073,
      "orary": 2074,
      "================": 2075,
      "issing": 2076,
      "AX": 2077,
      "year": 2078,
      "ueue": 2079,
      "Ġ\"%": 2080,
      "Ġdictionary": 2081,
      "Ġlong": 2082,
      "ATH": 2083,
      "trans": 2084,
      "ĠException": 2085,
      "Ġfullname": 2086,
      "Ġpipe": 2087,
      "rough": 2088,
      "99": 2089,
      "FO": 2090,
      "Ġrest": 2091,
      "ĊĠĠĠĠĠĠĠĠĠĠĠĠĠĠĠĠĠĠ": 2092,
      "ntax": 2093,
      "Ġsequence": 2094,
      "Ġconvert": 2095,
      "ween": 2096,
      "LL": 2097,
      "[\"": 2098,
      "imp": 2099,
      "erator": 2100,
      "Ġindi": 2101,
      "Ġ...": 2102,
      "tributes": 2103,
      "################################": 2104,
      "Parser": 2105,
      "So": 2106,
      "ccess": 2107,
      "month": 2108,
      "Ġ10": 2109,
      "Ġnamespace": 2110,
      "Request": 2111,
      "host": 2112,
      "App": 2113,
      "Bu": 2114,
      "QU": 2115,
      "Tran": 2116,
      "aise": 2117,
      "cc": 2118,
      "dd": 2119,
      "rp": 2120,
      "tb": 2121,
      "Ġutil": 2122,
      "lections": 2123,
      "Ġpy": 2124,
      "ĊĠĠĠĠĠĠĠĠĠĠĠĠĠĠĠĠĠĠĠĠĠĠ": 2125,
      "Ġstandard": 2126,
      "ell": 2127,
      "Ġenv": 2128,
      "Ġpaths": 2129,
      "vious": 2130,
      "Ġabout": 2131,
      "Ġparts": 2132,
      "week": 2133,
      "amily": 2134,
      "annels": 2135,
      "Ġbetween": 2136,
      "Un": 2137,
      "cro": 2138,
      "dar": 2139,
      "Ġthese": 2140,
      "Ġsupp": 2141,
      "timeError": 2142,
      "This": 2143,
      "sy": 2144,
      "Ġregister": 2145,
      "Ġsend": 2146,
      "STR": 2147,
      "Ġwaiter": 2148,
      "Ġpossible": 2149,
      "AB": 2150,
      "OM": 2151,
      "PT": 2152,
      "udi": 2153,
      "uid": 2154,
      "Ġter": 2155,
      "stant": 2156,
      "Ġclasses": 2157,
      "extend": 2158,
      "Ġlock": 2159,
      ")))": 2160,
      "Ġdirect": 2161,
      "andlers": 2162,
      "framework": 2163,
      "ITE": 2164,
      "SER": 2165,
      "final": 2166,
      "ĊĠĠĠĠĠ": 2167,
      "hed": 2168,
      "Ġnum": 2169,
      "Ġsee": 2170,
      "istic": 2171,
      "Ġ[\"": 2172,
      "Ġwhat": 2173,
      "INE": 2174,
      "ancelled": 2175,
      "Ġtyp": 2176,
      "abstractmethod": 2177,
      ">'": 2178,
      "io": 2179,
      "tion": 2180,
      "Ġ}": 2181,
      "atches": 2182,
      "Ġbinary": 2183,
      "Ġinte": 2184,
      "Ġmonth": 2185,
      "rag": 2186,
      "Ġchunks": 2187,
      "ĠRuntimeError": 2188,
      "Di": 2189,
      "fg": 2190,
      "mory": 2191,
      "Ġraised": 2192,
      "formation": 2193,
      "nor": 2194,
      "table": 2195,
      "ĊĠĠĠĠĠĠĠĠĠĠĠĠ": 2196,
      "Ġdb": 2197,
      "ĠTo": 2198,
      "precation": 2199,
      "READ": 2200,
      "Ġcompiler": 2201,
      "Ġwhether": 2202,
      "trace": 2203,
      "structor": 2204,
      "][": 2205,
      "ample": 2206,
      "ww": 2207,
      "Ġfix": 2208,
      "Ġfinal": 2209,
      "Ġclosed": 2210,
      "Ġclient": 2211,
      "Ġspec": 2212,
      "Ġselector": 2213,
      "ĠList": 2214,
      "stats": 2215,
      "Ġcontaining": 2216,
      "udio": 2217,
      "MO": 2218,
      "ns": 2219,
      "Ġmember": 2220,
      "ĠAttributeError": 2221,
      "initial": 2222,
      "ERR": 2223,
      "Ġtrans": 2224,
      "Ġoverri": 2225,
      "ful": 2226,
      "ified": 2227,
      "Ġawait": 2228,
      "raction": 2229,
      "Ġthrough": 2230,
      "Ġoriginal": 2231,
      "Ġasync": 2232,
      "Ġdecode": 2233,
      "ĊĠĠĠĠĠĠĠĠĠĠĠĠĠĠĠĠĠĠĠĠĠĠĠĠĠĠ": 2234,
      "Ġalways": 2235,
      "ical": 2236,
      "hash": 2237,
      "CH": 2238,
      "Event": 2239,
      "GI": 2240,
      "IX": 2241,
      "dst": 2242,
      "return": 2243,
      "Ġtb": 2244,
      "ceived": 2245,
      "except": 2246,
      "first": 2247,
      "'))": 2248,
      "readline": 2249,
      "ĠPro": 2250,
      "tag": 2251,
      "model": 2252,
      "Ġrepr": 2253,
      "SIZE": 2254,
      "AN": 2255,
      "Ch": 2256,
      "upt": 2257,
      "Ġwould": 2258,
      "lim": 2259,
      "__.__": 2260,
      "update": 2261,
      "Ġdirectories": 2262,
      "ĠLo": 2263,
      "Ġsubclass": 2264,
      "post": 2265,
      "Gener": 2266,
      "Node": 2267,
      "UID": 2268,
      "fut": 2269,
      "Ġhost": 2270,
      "ĠInt": 2271,
      "fork": 2272,
      "ically": 2273,
      "sume": 2274,
      "pass": 2275,
      "fullname": 2276,
      "SY": 2277,
      "ai": 2278,
      "ws": 2279,
      "Ġ--------------------------------": 2280,
      "Ġspace": 2281,
      "otstra": 2282,
      "Ġnamed": 2283,
      "ĠAPI": 2284,
      "Ġrandom": 2285,
      "Ġ200": 2286,
      "Ġsplit": 2287,
      "ernal": 2288,
      "II": 2289,
      "Id": 2290,
      "essage": 2291,
      "push": 2292,
      "{}": 2293,
      "ization": 2294,
      "dirname": 2295,
      "function": 2296,
      "Ġfollowing": 2297,
      "cursive": 2298,
      "tx": 2299,
      "xml": 2300,
      "Ġoc": 2301,
      "mpwidth": 2302,
      "orkspace": 2303,
      "Ġposition": 2304,
      "Ġcreated": 2305,
      "Ġhttp": 2306,
      ")\"": 2307,
      "33": 2308,
      "PRE": 2309,
      "eof": 2310,
      "gn": 2311,
      "Ġfn": 2312,
      "Ġinformation": 2313,
      "dis": 2314,
      "ends": 2315,
      "ĠSet": 2316,
      "Ġcannot": 2317,
      "stdin": 2318,
      "ĠJSON": 2319,
      "ron": 2320,
      "yload": 2321,
      "Ġro": 2322,
      "lean": 2323,
      "lots": 2324,
      "iled": 2325,
      "Ġform": 2326,
      "Ġsearch": 2327,
      "connection": 2328,
      "precated": 2329,
      "byte": 2330,
      "ASE": 2331,
      "UR": 2332,
      "gative": 2333,
      "tri": 2334,
      "ually": 2335,
      "allback": 2336,
      "Ġus": 2337,
      "Ġgo": 2338,
      "buf": 2339,
      "ĠWhen": 2340,
      "cription": 2341,
      "Ġdisp": 2342,
      "Compiler": 2343,
      "precationWarning": 2344,
      "_(": 2345,
      "nframes": 2346,
      "rb": 2347,
      "Ġaut": 2348,
      "Ġwrit": 2349,
      "Ġwidth": 2350,
      "iling": 2351,
      "lapped": 2352,
      "exists": 2353,
      "Ġweek": 2354,
      "ĠMIME": 2355,
      "nominator": 2356,
      "tain": 2357,
      "Ġpoint": 2358,
      "Ġpolicy": 2359,
      "Ġaccept": 2360,
      "LOC": 2361,
      "otstrap": 2362,
      "System": 2363,
      "fin": 2364,
      "search": 2365,
      "release": 2366,
      "less": 2367,
      "____": 2368,
      "ĊĠĠĠĠĠĠĠĠĠĠĠĠĠĠĠĠĠĠĠĠĠĠĠĠĠ": 2369,
      "ĠPath": 2370,
      "Ġresults": 2371,
      "mbers": 2372,
      "'''": 2373,
      "Ġrunning": 2374,
      "04": 2375,
      "FA": 2376,
      "Ġkeep": 2377,
      "Ġes": 2378,
      "Ġwant": 2379,
      "loader": 2380,
      "Ġneeded": 2381,
      "ignore": 2382,
      "Ġshort": 2383,
      "Ġcompat": 2384,
      "Ġcalls": 2385,
      "tokens": 2386,
      "Ġthreading": 2387,
      "SCII": 2388,
      "Ġdifferent": 2389,
      "56": 2390,
      "</": 2391,
      "Data": 2392,
      "ED": 2393,
      "break": 2394,
      "element": 2395,
      "rol": 2396,
      "locale": 2397,
      "lied": 2398,
      "values": 2399,
      "cio": 2400,
      "Ġcompress": 2401,
      "yncio": 2402,
      "ublic": 2403,
      "Ġmultip": 2404,
      "field": 2405,
      "OS": 2406,
      "ice": 2407,
      "ĠXML": 2408,
      "Ġresponse": 2409,
      "ities": 2410,
      "Ġpython": 2411,
      "Ġboth": 2412,
      "Ġ',": 2413,
      "Ġmeta": 2414,
      "ĠAn": 2415,
      "params": 2416,
      "Ġld": 2417,
      "cesses": 2418,
      "ools": 2419,
      "Ġfeature": 2420,
      "RPC": 2421,
      "=%": 2422,
      "ume": 2423,
      "ero": 2424,
      "Ġali": 2425,
      "head": 2426,
      "Ġemit": 2427,
      "---": 2428,
      "MENT": 2429,
      "ibility": 2430,
      "Ġcontains": 2431,
      "Ġsorted": 2432,
      "List": 2433,
      "PA": 2434,
      "her": 2435,
      "Ġvalid": 2436,
      "ines": 2437,
      "Ġtotal": 2438,
      "ery": 2439,
      "Ġevery": 2440,
      "Ġsep": 2441,
      "force": 2442,
      "vice": 2443,
      "support": 2444,
      "Ġway": 2445,
      "archive": 2446,
      "safe": 2447,
      "Ġshared": 2448,
      "PATH": 2449,
      "ailed": 2450,
      "mark": 2451,
      "over": 2452,
      "side": 2453,
      "Ġctypes": 2454,
      "Ġredu": 2455,
      "ssl": 2456,
      "exec": 2457,
      "__)": 2458,
      "ifest": 2459,
      "Ġaccess": 2460,
      "Ġignore": 2461,
      "01": 2462,
      "ered": 2463,
      "hread": 2464,
      "son": 2465,
      "Ġ]": 2466,
      "seek": 2467,
      "Ġref": 2468,
      "Ġword": 2469,
      "umm": 2470,
      "Reader": 2471,
      "Ġheap": 2472,
      "Ġattributes": 2473,
      "ĠBy": 2474,
      "empty": 2475,
      "shake": 2476,
      "ĠDeprecationWarning": 2477,
      "Ġcallable": 2478,
      "EN": 2479,
      "ew": 2480,
      "lan": 2481,
      "mot": 2482,
      "written": 2483,
      "Ġpri": 2484,
      "channels": 2485,
      "Ġhow": 2486,
      "Ġwhitespace": 2487,
      "Ġadded": 2488,
      "NOT": 2489,
      "Module": 2490,
      "slots": 2491,
      "writer": 2492,
      "stop": 2493,
      "escape": 2494,
      "external": 2495,
      "ĠFile": 2496,
      "irs": 2497,
      "Ġnewline": 2498,
      "Ġknow": 2499,
      "document": 2500,
      "imize": 2501,
      "workspace": 2502,
      "Ġtrace": 2503,
      "ĠHTTP": 2504,
      "FLAGS": 2505,
      "complete": 2506,
      "Frame": 2507,
      "To": 2508,
      "ug": 2509,
      "ĊĊĠĠĠĠĠĠĠĠĠĠĠĠĠĠĠ": 2510,
      "ĊĠĠĠĠĠĠĠĠĠĠĠĠĠĠ": 2511,
      "Ġag": 2512,
      "Ġfield": 2513,
      "array": 2514,
      "Ġremo": 2515,
      "()'": 2516,
      "ĊĠĠĠĠĠĠĠĠĠĠĠĠĠĠĠĠĠĠĠĠĠĠĠĠĠĠĠĠ": 2517,
      "Ġencode": 2518,
      "Ġpathname": 2519,
      "ĠNO": 2520,
      "ĠWindows": 2521,
      "Ġaddr": 2522,
      "Ġsupported": 2523,
      "100": 2524,
      "24": 2525,
      "86": 2526,
      "=_": 2527,
      "bdist": 2528,
      "cr": 2529,
      "wrap": 2530,
      "Ġkeys": 2531,
      "Ġfail": 2532,
      "Ġ'<": 2533,
      "unter": 2534,
      "convert": 2535,
      "short": 2536,
      "ustom": 2537,
      "waiter": 2538,
      "ĊĠĠĠĠĠĠĠĠĠĠĠĠĠĠĠĠĠĠĠĠĠĠĠĠĠĠĠĠĠĠĠĠĠĠ": 2539,
      "Exit": 2540,
      "quire": 2541,
      "packages": 2542,
      "bose": 2543,
      "bootstrap": 2544,
      "Ġzip": 2545,
      "crement": 2546,
      "tails": 2547,
      "SU": 2548,
      "ensure": 2549,
      "ilters": 2550,
      "rive": 2551,
      "fileno": 2552,
      "Ġdeprecated": 2553,
      "Ġmemory": 2554,
      "lative": 2555,
      "licit": 2556,
      "ORT": 2557,
      "imer": 2558,
      "Ġreplace": 2559,
      "Ġprogram": 2560,
      "Ġarchive": 2561,
      "Tab": 2562,
      "Temp": 2563,
      "Ġlat": 2564,
      "Ġnow": 2565,
      "Ġwin": 2566,
      "Ġ\"-": 2567,
      "Ġlogger": 2568,
      "Ġexceptions": 2569,
      "Ġcoroutine": 2570,
      "Ġexisting": 2571,
      "LIB": 2572,
      "Iteration": 2573,
      "Create": 2574,
      "Pi": 2575,
      "fds": 2576,
      "onent": 2577,
      "ctype": 2578,
      "Ġcommon": 2579,
      "verse": 2580,
      "Ġsuch": 2581,
      "ĊĠĠĠĠĠĠĠĠĠĠĠĠĠĠĠĠĠĠĠĠĠĠĠĠĠĠĠĠĠĠĠĠĠĠĠ": 2582,
      "Ġsubprocess": 2583,
      "sampwidth": 2584,
      "akref": 2585,
      "BUG": 2586,
      "Ġstdout": 2587,
      "clear": 2588,
      "Header": 2589,
      "Ġdatetime": 2590,
      "LD": 2591,
      "WA": 2592,
      "dit": 2593,
      "yle": 2594,
      "ĠZ": 2595,
      "recv": 2596,
      "Ġput": 2597,
      "cheme": 2598,
      "mbed": 2599,
      "sgi": 2600,
      "ields": 2601,
      "FIX": 2602,
      "CODE": 2603,
      "Result": 2604,
      "extensions": 2605,
      "fn": 2606,
      "float": 2607,
      "site": 2608,
      "sig": 2609,
      "atal": 2610,
      "Ġ\"__": 2611,
      "andshake": 2612,
      "Ġdest": 2613,
      "cont": 2614,
      "ĠerrorTab": 2615,
      "ynch": 2616,
      "Ġinterpre": 2617,
      "uthor": 2618,
      "executable": 2619,
      "spawn": 2620,
      "Do": 2621,
      "HE": 2622,
      "eg": 2623,
      "enter": 2624,
      "mpt": 2625,
      "Ġmost": 2626,
      "Ġdst": 2627,
      "namespace": 2628,
      "ished": 2629,
      "ĠSo": 2630,
      "umbers": 2631,
      "running": 2632,
      "Framework": 2633,
      "LA": 2634,
      "factory": 2635,
      "ĊĠĠĠĠĠĠĠĠĠ": 2636,
      "decl": 2637,
      "Ġsrc": 2638,
      "Ġelem": 2639,
      "Ġwrapper": 2640,
      "expected": 2641,
      "Ġbeing": 2642,
      "Ġlow": 2643,
      "Ġimportlib": 2644,
      "ĠCh": 2645,
      "Ġcomplete": 2646,
      "Ġprovided": 2647,
      "Ġplatform": 2648,
      "'re": 2649,
      "String": 2650,
      "filter": 2651,
      "ove": 2652,
      "place": 2653,
      "system": 2654,
      "Ġvi": 2655,
      "__',": 2656,
      "gettext": 2657,
      "Ġconn": 2658,
      "setup": 2659,
      "Ġmapping": 2660,
      "okie": 2661,
      "html": 2662,
      "SET": 2663,
      "quote": 2664,
      "Get": 2665,
      "action": 2666,
      "rg": 2667,
      "words": 2668,
      "\",\"": 2669,
      "opy": 2670,
      "('-": 2671,
      "Ġmach": 2672,
      "(\"%": 2673,
      "Ġbuilt": 2674,
      "redu": 2675,
      "Ġprevious": 2676,
      "Ġyear": 2677,
      "Ġlang": 2678,
      "Ġleast": 2679,
      "policy": 2680,
      "Ġlogging": 2681,
      "Ġexecutable": 2682,
      "struction": 2683,
      "Ġkwds": 2684,
      "mote": 2685,
      "Path": 2686,
      "fy": 2687,
      "Ġ()": 2688,
      "ĊĠĠĠĠĠĠ": 2689,
      "remo": 2690,
      "env": 2691,
      "Ġspa": 2692,
      "Ġinclu": 2693,
      "Ġmissing": 2694,
      "Ġloader": 2695,
      "Ġlocale": 2696,
      "connect": 2697,
      "ĠFraction": 2698,
      "Ġxml": 2699,
      "ough": 2700,
      "ĠComp": 2701,
      ".')": 2702,
      "14": 2703,
      "For": 2704,
      "HO": 2705,
      "Wrapper": 2706,
      "cfg": 2707,
      "ki": 2708,
      "number": 2709,
      "ump": 2710,
      "Ġqu": 2711,
      "invalid": 2712,
      "step": 2713,
      "lete": 2714,
      "help": 2715,
      "Ġfalse": 2716,
      "Ġnormal": 2717,
      "Ġ'',": 2718,
      "Ġtoo": 2719,
      "ĠSAX": 2720,
      "posix": 2721,
      "Ġspecial": 2722,
      "status": 2723,
      "Ġreport": 2724,
      "NORE": 2725,
      "Ġentries": 2726,
      "scriptor": 2727,
      "Ġreference": 2728,
      "Build": 2729,
      "13": 2730,
      "Ġov": 2731,
      "Ġinternal": 2732,
      "ctools": 2733,
      "adata": 2734,
      "Ġcould": 2735,
      "vals": 2736,
      "Ġconstructor": 2737,
      "idx": 2738,
      "Ġtests": 2739,
      "Process": 2740,
      "which": 2741,
      "Ġparameter": 2742,
      "cros": 2743,
      "FAULT": 2744,
      "are": 2745,
      "tt": 2746,
      "tadata": 2747,
      "zone": 2748,
      "Ġtable": 2749,
      "Ġreal": 2750,
      "Ġremove": 2751,
      "Ġ'\\\\": 2752,
      "Ġstrict": 2753,
      "Ġsent": 2754,
      "conds": 2755,
      "builtin": 2756,
      "igh": 2757,
      "shutdown": 2758,
      "basename": 2759,
      "ĠRaise": 2760,
      "http": 2761,
      "Invalid": 2762,
      "ressed": 2763,
      "ĠStop": 2764,
      "nchannels": 2765,
      "Ġright": 2766,
      "response": 2767,
      "Ġtag": 2768,
      "order": 2769,
      "Ġident": 2770,
      "Ġrelease": 2771,
      "Ġ'--": 2772,
      "Ġinvalid": 2773,
      "Ġday": 2774,
      "Ġ16": 2775,
      "ĊĠĠĠĠĠĠĠĠĠĠĠĠĠĠĠĠĠĠĠĠĠĠĠĠĠĠĠĠĠ": 2776,
      "ĠAB": 2777,
      "vices": 2778,
      "Ġfilenames": 2779,
      "rapped": 2780,
      "kwds": 2781,
      "ĠUnix": 2782,
      "Ġattrs": 2783,
      "ynchron": 2784,
      "15": 2785,
      "FOR": 2786,
      "GET": 2787,
      "classes": 2788,
      "Ġjoin": 2789,
      "Ġtail": 2790,
      "Ġbrowser": 2791,
      "gex": 2792,
      "().__": 2793,
      "Ġanother": 2794,
      "velo": 2795,
      "Ġonce": 2796,
      "ĠOther": 2797,
      "Ġparsing": 2798,
      "ORY": 2799,
      "futures": 2800,
      "scripts": 2801,
      "herit": 2802,
      "OP": 2803,
      "Simple": 2804,
      "bin": 2805,
      "gers": 2806,
      "denominator": 2807,
      "Ġtheir": 2808,
      "Ġeven": 2809,
      "Ġexpected": 2810,
      "directory": 2811,
      "Ġcom": 2812,
      "fileobj": 2813,
      "ments": 2814,
      "Ġuses": 2815,
      "').": 2816,
      "ĠIN": 2817,
      "cimal": 2818,
      "Ġsetup": 2819,
      "Ġdoc": 2820,
      "Ġapplication": 2821,
      "tests": 2822,
      "coro": 2823,
      "chunks": 2824,
      "Selector": 2825,
      "stants": 2826,
      "Ġoccur": 2827,
      "Run": 2828,
      "amp": 2829,
      "Ġresp": 2830,
      "Ġown": 2831,
      "losing": 2832,
      "Ġstill": 2833,
      "dian": 2834,
      "getitem": 2835,
      "ending": 2836,
      "endswith": 2837,
      "conn": 2838,
      "Ġready": 2839,
      "Info": 2840,
      "[:-": 2841,
      "Ġworkspace": 2842,
      "Def": 2843,
      "Ġstatus": 2844,
      "ramerate": 2845,
      "globals": 2846,
      "Frameworks": 2847,
      "'])": 2848,
      ".)": 2849,
      "02": 2850,
      "AM": 2851,
      "ES": 2852,
      "Su": 2853,
      "gory": 2854,
      "ps": 2855,
      "vid": 2856,
      "writ": 2857,
      "Ġrow": 2858,
      "Ġbool": 2859,
      "vers": 2860,
      "Ġmembers": 2861,
      "Ġsuccess": 2862,
      "lications": 2863,
      "Ġreadline": 2864,
      "Ġdefaults": 2865,
      "static": 2866,
      "errupt": 2867,
      "Ġavoid": 2868,
      "UTF": 2869,
      "Ġiterable": 2870,
      "Ġgenerator": 2871,
      "Ġkwargs": 2872,
      "IGNORE": 2873,
      "Ġrequired": 2874,
      "DIR": 2875,
      "Ġauto": 2876,
      "reduce": 2877,
      ").__": 2878,
      "Case": 2879,
      "Queue": 2880,
      "RL": 2881,
      "ait": 2882,
      "iprocess": 2883,
      "mk": 2884,
      "ĠX": 2885,
      "Ġcancelled": 2886,
      "Ġctx": 2887,
      "Ġsign": 2888,
      "Ġnumbers": 2889,
      "Ġdry": 2890,
      "change": 2891,
      "Ġcons": 2892,
      "ĠUUID": 2893,
      "TED": 2894,
      "Ġexists": 2895,
      "dump": 2896,
      "Ġzero": 2897,
      "SSL": 2898,
      "istics": 2899,
      "\"))": 2900,
      "Handle": 2901,
      "SPA": 2902,
      "uring": 2903,
      "Ġitself": 2904,
      "application": 2905,
      "ĊĠĠĠĠĠĠĠĠĠĠĠĠĠĠĠĠĠĠĠĠĠĠĠĠĠĠĠĠĠĠĠĠĠĠĠĠĠĠĠĠĠĠĠĠĠĠĠĠ": 2906,
      "Context": 2907,
      "accept": 2908,
      "Loader": 2909,
      "cancelled": 2910,
      "Ġglobals": 2911,
      "Ġsymb": 2912,
      "Ġmeans": 2913,
      "weekday": 2914,
      "++": 2915,
      "200": 2916,
      "LINE": 2917,
      "cm": 2918,
      "known": 2919,
      "rand": 2920,
      "wd": 2921,
      "Ġaudio": 2922,
      "alk": 2923,
      "itle": 2924,
      "uri": 2925,
      "INFO": 2926,
      "Ġbuiltin": 2927,
      "Ġpick": 2928,
      "tasks": 2929,
      "Ġoperation": 2930,
      "Ġvariables": 2931,
      "Ġmultiple": 2932,
      "34": 2933,
      "WR": 2934,
      "gor": 2935,
      "ĠRE": 2936,
      "registry": 2937,
      "Ġtz": 2938,
      "Ġimp": 2939,
      "Ġreg": 2940,
      "Ġrelative": 2941,
      "Ġbin": 2942,
      "Ġ'{": 2943,
      "Ġwords": 2944,
      "round": 2945,
      "ĠCopy": 2946,
      "classmethod": 2947,
      "Ġnecess": 2948,
      "Ġreading": 2949,
      "gistered": 2950,
      "domain": 2951,
      "Lock": 2952,
      "PIPE": 2953,
      "children": 2954,
      "specific": 2955,
      "Ġdirectly": 2956,
      ":`": 2957,
      "IS": 2958,
      "MTP": 2959,
      "ale": 2960,
      "gin": 2961,
      "kg": 2962,
      "lush": 2963,
      "oo": 2964,
      "port": 2965,
      "poll": 2966,
      "signal": 2967,
      "wrapper": 2968,
      "inel": 2969,
      "Ġtree": 2970,
      "Ġfs": 2971,
      "Ġresol": 2972,
      "Ġsignal": 2973,
      "unpack": 2974,
      "Ġdescriptor": 2975,
      "lendar": 2976,
      "ĠFuture": 2977,
      "eta": 2978,
      "DEFAULT": 2979,
      "ARY": 2980,
      "Ġframes": 2981,
      "Stream": 2982,
      "Internal": 2983,
      "Ġprovides": 2984,
      "Ġrawdata": 2985,
      "manager": 2986,
      "Ġseparator": 2987,
      "19": 2988,
      "ph": 2989,
      "Ġfamily": 2990,
      "Ġreader": 2991,
      "Ġpop": 2992,
      "Ġsm": 2993,
      "ĠOn": 2994,
      "ĠMapp": 2995,
      "Ġshutdown": 2996,
      "objects": 2997,
      "numerator": 2998,
      "ffered": 2999,
      "lank": 3000,
      "Ġremoved": 3001,
      "SPACE": 3002,
      ",))": 3003,
      "TIME": 3004,
      "kf": 3005,
      "top": 3006,
      "total": 3007,
      "warnings": 3008,
      "ypes": 3009,
      "})": 3010,
      "seq": 3011,
      "Ġbit": 3012,
      "ately": 3013,
      "Ġ-=": 3014,
      "libraries": 3015,
      "mbda": 3016,
      "usr": 3017,
      "suffix": 3018,
      "ĠHe": 3019,
      "Ġlibraries": 3020,
      "Ġcollections": 3021,
      "Ġenvironment": 3022,
      "Ġdocumentation": 3023,
      "Transport": 3024,
      "Ġinteger": 3025,
      "Ġcompatibility": 3026,
      "={": 3027,
      "PP": 3028,
      "uation": 3029,
      "strict": 3030,
      "Ġregistry": 3031,
      "Ġrecursive": 3032,
      "Ġpid": 3033,
      "Ġwritten": 3034,
      "lost": 3035,
      "cogn": 3036,
      "__()": 3037,
      "digest": 3038,
      "Ġdecl": 3039,
      "ffect": 3040,
      "Ġcalling": 3041,
      "VENT": 3042,
      "Ġ//": 3043,
      "Ġnextchar": 3044,
      "SIG": 3045,
      "256": 3046,
      "Ġquote": 3047,
      "Ġparameters": 3048,
      "ropri": 3049,
      "gorith": 3050,
      ")[": 3051,
      ").\"\"\"": 3052,
      "80": 3053,
      "SV": 3054,
      "Text": 3055,
      "WOR": 3056,
      "after": 3057,
      "dll": 3058,
      "net": 3059,
      "}/": 3060,
      "Ġ^": 3061,
      "Ġfields": 3062,
      "Ġmo": 3063,
      "comm": 3064,
      "__':": 3065,
      "Ġstderr": 3066,
      "Ġexample": 3067,
      "async": 3068,
      "Ġdecoded": 3069,
      "Ġsure": 3070,
      "ĠThese": 3071,
      "param": 3072,
      "Execut": 3073,
      "SION": 3074,
      "Ġexecutor": 3075,
      "CTION": 3076,
      "parts": 3077,
      "Ġissue": 3078,
      "As": 3079,
      "No": 3080,
      "cb": 3081,
      "tc": 3082,
      "vo": 3083,
      "warning": 3084,
      "ĊĠĠ": 3085,
      "respon": 3086,
      "Ġtt": 3087,
      "hes": 3088,
      "here": 3089,
      "Ġnor": 3090,
      "uess": 3091,
      "edit": 3092,
      "pth": 3093,
      "termin": 3094,
      "served": 3095,
      "settings": 3096,
      "uplic": 3097,
      "Read": 3098,
      "ĠDep": 3099,
      "Ġwere": 3100,
      "comptype": 3101,
      "Ġlet": 3102,
      "Ġ32": 3103,
      "Ġbackend": 3104,
      "Ġstdin": 3105,
      "removals": 3106,
      "veloper": 3107,
      "ropriate": 3108,
      "\"\\": 3109,
      ".\")": 3110,
      "Option": 3111,
      "Pre": 3112,
      "[^": 3113,
      "dle": 3114,
      "handshake": 3115,
      "tree": 3116,
      "separ": 3117,
      "resource": 3118,
      "orch": 3119,
      "ority": 3120,
      "Ġreset": 3121,
      "Ġshe": 3122,
      "Ġmatches": 3123,
      "Ġ15": 3124,
      "ĠAl": 3125,
      "Ġensure": 3126,
      "ATA": 3127,
      "rpm": 3128,
      "STRING": 3129,
      "ĠOtherwise": 3130,
      "ĠCopyright": 3131,
      "Element": 3132,
      "IF": 3133,
      "dition": 3134,
      "gate": 3135,
      "hore": 3136,
      "uff": 3137,
      "uage": 3138,
      "dev": 3139,
      "Ġmu": 3140,
      "come": 3141,
      "('\\": 3142,
      "iddle": 3143,
      "tools": 3144,
      "Ġdiff": 3145,
      "forms": 3146,
      "Ġ<<": 3147,
      "Ġinstalled": 3148,
      "Ġkeyword": 3149,
      "Ġcaller": 3150,
      "attrs": 3151,
      "LEN": 3152,
      "ialog": 3153,
      "maphore": 3154,
      "Ġiterator": 3155,
      "Parse": 3156,
      "THON": 3157,
      "Ġextensions": 3158,
      "havi": 3159,
      "66": 3160,
      "ethod": 3161,
      "framerate": 3162,
      "Ġ9": 3163,
      "rel": 3164,
      "Ġtak": 3165,
      "store": 3166,
      "stamp": 3167,
      "medi": 3168,
      "uration": 3169,
      "Ġboundary": 3170,
      "Ġmight": 3171,
      "Ġstrip": 3172,
      "ason": 3173,
      "quen": 3174,
      "quiv": 3175,
      "Ġ{'": 3176,
      "Ġknown": 3177,
      "DEBUG": 3178,
      "Ġmsgid": 3179,
      "Ġappend": 3180,
      "Ġigno": 3181,
      "TYPE": 3182,
      "Ġlater": 3183,
      "Pipe": 3184,
      "ĠDepends": 3185,
      "=-": 3186,
      "BO": 3187,
      "UD": 3188,
      "au": 3189,
      "popen": 3190,
      "}\")": 3191,
      "ulate": 3192,
      "ably": 3193,
      "entry": 3194,
      "Ġprocesses": 3195,
      "foo": 3196,
      "Ġleft": 3197,
      "home": 3198,
      "Developer": 3199,
      "ĠStream": 3200,
      "Ġlocals": 3201,
      "ĠZip": 3202,
      "11": 3203,
      "By": 3204,
      "NS": 3205,
      "br": 3206,
      "boundary": 3207,
      "miss": 3208,
      "xb": 3209,
      "onic": 3210,
      "Ġbound": 3211,
      "Ġ')": 3212,
      "Ġwr": 3213,
      "roken": 3214,
      "Ġexact": 3215,
      "ĠTh": 3216,
      "Ġthose": 3217,
      "Ġbehavi": 3218,
      "term": 3219,
      "Ġconnect": 3220,
      "Ġdelim": 3221,
      "ĠAs": 3222,
      "Ġhead": 3223,
      "Returns": 3224,
      "ĠUse": 3225,
      "Ġappropriate": 3226,
      "Loop": 3227,
      "UNI": 3228,
      "MAX": 3229,
      "shared": 3230,
      "ĠUnicode": 3231,
      "Ġassume": 3232,
      "cremental": 3233,
      "iprocessing": 3234,
      "Ġnecessary": 3235,
      ">\\": 3236,
      "BASE": 3237,
      "fc": 3238,
      "ving": 3239,
      "xy": 3240,
      "ĠY": 3241,
      "received": 3242,
      "Ġcustom": 3243,
      "Ġpublic": 3244,
      "ots": 3245,
      "Ġforce": 3246,
      "Ġhapp": 3247,
      "ffff": 3248,
      "------------": 3249,
      "soft": 3250,
      "ĠDi": 3251,
      "0000": 3252,
      "view": 3253,
      "HAND": 3254,
      "Ġspecifi": 3255,
      "Ġspecific": 3256,
      "Ġspecify": 3257,
      "Ġapply": 3258,
      "ubclass": 3259,
      "Ġcoro": 3260,
      "Ġcolumn": 3261,
      "ĠStopIteration": 3262,
      "alent": 3263,
      "SHA": 3264,
      "TO": 3265,
      "]*": 3266,
      "dk": 3267,
      "elem": 3268,
      "gen": 3269,
      "reg": 3270,
      "reset": 3271,
      "ĠĠĠĠĠĠĠĠĠ": 3272,
      "Ġob": 3273,
      "Ġour": 3274,
      "ather": 3275,
      "Ġ12": 3276,
      "ĠPar": 3277,
      "matically": 3278,
      "ĠThere": 3279,
      "ĠOR": 3280,
      "iteral": 3281,
      "range": 3282,
      "Ġbased": 3283,
      "Ġabove": 3284,
      "logger": 3285,
      "Ġopts": 3286,
      "Ġtemporary": 3287,
      "solute": 3288,
      "Ġactually": 3289,
      "Ġverbose": 3290,
      "MODE": 3291,
      "ĠBytes": 3292,
      "Ġinterpreter": 3293,
      "quivalent": 3294,
      "55": 3295,
      "GE": 3296,
      "HTTP": 3297,
      "ling": 3298,
      "sw": 3299,
      "wsgi": 3300,
      "meta": 3301,
      "allow": 3302,
      "serve": 3303,
      "Ġnever": 3304,
      "inder": 3305,
      "Ġuni": 3306,
      "ĠWorkspace": 3307,
      "iterable": 3308,
      "iterator": 3309,
      "payload": 3310,
      "Ġkind": 3311,
      "LED": 3312,
      "Ġtrailing": 3313,
      "encoded": 3314,
      "Ġdescription": 3315,
      "ERROR": 3316,
      "mission": 3317,
      "Dialog": 3318,
      "Found": 3319,
      "OUT": 3320,
      "Thread": 3321,
      "browser": 3322,
      "ylib": 3323,
      "aris": 3324,
      "ings": 3325,
      "Ġ\"\\": 3326,
      "Ġmapped": 3327,
      "ĠAll": 3328,
      "forge": 3329,
      "irc": 3330,
      "ĠDo": 3331,
      "Ġlon": 3332,
      "Ġruntime": 3333,
      "Ġinstances": 3334,
      "Ġcorrespon": 3335,
      "ĠStat": 3336,
      "Ġstatement": 3337,
      "Ġinstallation": 3338,
      "Ġcontents": 3339,
      "rawdata": 3340,
      "Ġurllib": 3341,
      "ifier": 3342,
      "Ġspawn": 3343,
      "Ġhappen": 3344,
      "75": 3345,
      "78": 3346,
      "Ca": 3347,
      "Dist": 3348,
      "Message": 3349,
      "Pool": 3350,
      "PRO": 3351,
      "UP": 3352,
      "duct": 3353,
      "lang": 3354,
      "void": 3355,
      "zen": 3356,
      "Ġvars": 3357,
      "rest": 3358,
      "ont": 3359,
      "Ġremote": 3360,
      "Ġetc": 3361,
      "define": 3362,
      "ading": 3363,
      "ĠTra": 3364,
      "iso": 3365,
      "keup": 3366,
      "reading": 3367,
      "ĠDE": 3368,
      "Ġcomponent": 3369,
      "active": 3370,
      "Ġsupports": 3371,
      "Ġtuples": 3372,
      "Ġmany": 3373,
      "Ġidx": 3374,
      "chedule": 3375,
      "ĠEOFError": 3376,
      "Ġindic": 3377,
      "Source": 3378,
      "Ġmachine": 3379,
      "\"'": 3380,
      "(%": 3381,
      "Future": 3382,
      "NE": 3383,
      "gine": 3384,
      "handlers": 3385,
      "mlink": 3386,
      "pon": 3387,
      "pat": 3388,
      "selector": 3389,
      "heap": 3390,
      "Ġsimple": 3391,
      "dicate": 3392,
      "ĊĠĠĠĠĠĠĠĠĠĠĠĠĠĠĠĠĠĠĠĠĠĠĠĠĠĠĠĠĠĠ": 3393,
      "prog": 3394,
      "most": 3395,
      "epcopy": 3396,
      "optimize": 3397,
      "ĠContent": 3398,
      "Ġsample": 3399,
      "859": 3400,
      "Contents": 3401,
      "caped": 3402,
      "www": 3403,
      "ĠABC": 3404,
      "Ġregular": 3405,
      ".'''": 3406,
      "cdata": 3407,
      "cord": 3408,
      "ppe": 3409,
      "lear": 3410,
      "Ġappe": 3411,
      "alt": 3412,
      "rozen": 3413,
      "Ġreturning": 3414,
      "Ġ\"/": 3415,
      "ulation": 3416,
      "getattr": 3417,
      "Ġsecond": 3418,
      "Ġhard": 3419,
      "tok": 3420,
      "Ġyour": 3421,
      "ĠRes": 3422,
      "pare": 3423,
      "Ġabstract": 3424,
      "itional": 3425,
      "acquire": 3426,
      "Ġcurrently": 3427,
      "ĠIndex": 3428,
      "ĠGener": 3429,
      "Ġsafe": 3430,
      "Ġreferences": 3431,
      "Ġspaces": 3432,
      "finished": 3433,
      "WRITE": 3434,
      "ĠMapped": 3435,
      "8859": 3436,
      "AF": 3437,
      "bel": 3438,
      "else": 3439,
      "tect": 3440,
      "ves": 3441,
      "xx": 3442,
      "yntax": 3443,
      "}:": 3444,
      "Ġ$": 3445,
      "select": 3446,
      "left": 3447,
      "Ġfast": 3448,
      "arm": 3449,
      "Ġreason": 3450,
      "Ġsim": 3451,
      "Ġda": 3452,
      "unction": 3453,
      "common": 3454,
      "raise": 3455,
      "Ġstep": 3456,
      "Ġexpre": 3457,
      "Ġexec": 3458,
      "Ġconstants": 3459,
      "Ġmak": 3460,
      "Ġimported": 3461,
      "ĊĊĊ": 3462,
      "Ġproper": 3463,
      "ĠNo": 3464,
      "Ġyet": 3465,
      "Ġtimes": 3466,
      "ĊĠĠĠĠĠĠĠĠĠĠĠĠĠĠĠĠĠĠĠĠĠĠĠĠĠĠĠĠĠĠĠĠĠĠĠĠĠĠĠ": 3467,
      "negative": 3468,
      "calls": 3469,
      "Ġbreakpoint": 3470,
      "Ġtrain": 3471,
      "Ġgenerated": 3472,
      "Ġneeds": 3473,
      "events": 3474,
      "MPTY": 3475,
      "Ġsyntax": 3476,
      "Ġvia": 3477,
      "Ġautomatically": 3478,
      "commit": 3479,
      "Ġtakes": 3480,
      ".\",": 3481,
      "58": 3482,
      "Can": 3483,
      "MB": 3484,
      "ass": 3485,
      "dr": 3486,
      "eed": 3487,
      "pri": 3488,
      "hex": 3489,
      "enum": 3490,
      "urro": 3491,
      "Ġwell": 3492,
      "Ġdefect": 3493,
      "lap": 3494,
      "Ġ\"<": 3495,
      "ĠText": 3496,
      "Ġcopi": 3497,
      "('>": 3498,
      "Ġraises": 3499,
      "ĠSRE": 3500,
      "Ġsoft": 3501,
      "Ġprodu": 3502,
      "ĠPE": 3503,
      "Ġpair": 3504,
      "ipart": 3505,
      "ONE": 3506,
      "ĠBu": 3507,
      "unknown": 3508,
      "Ġuseful": 3509,
      "Ġanything": 3510,
      "subprocess": 3511,
      "slate": 3512,
      "locals": 3513,
      "Ġenumerate": 3514,
      "Ġignored": 3515,
      "'\"": 3516,
      ")'": 3517,
      ">\"": 3518,
      "DATA": 3519,
      "Tra": 3520,
      "]+": 3521,
      "bstract": 3522,
      "flush": 3523,
      "tar": 3524,
      "style": 3525,
      "Ġfailed": 3526,
      "ctx": 3527,
      "Ġwarn": 3528,
      "Ġbegin": 3529,
      "Ġhandlers": 3530,
      "Ġdetails": 3531,
      "readable": 3532,
      "Ġalgorith": 3533,
      "Ġrc": 3534,
      "true": 3535,
      "Ġsettings": 3536,
      "ĠModule": 3537,
      "Ġpresent": 3538,
      "mble": 3539,
      "ift": 3540,
      "ibly": 3541,
      "Ġmaxsize": 3542,
      "FIG": 3543,
      "Ġexport": 3544,
      "ĠDef": 3545,
      "Ġcompletion": 3546,
      "partial": 3547,
      "Interrupt": 3548,
      "Ġlookup": 3549,
      "********************************": 3550,
      "Versions": 3551,
      "(?:": 3552,
      "Ġfixed": 3553,
      "ĠProcess": 3554,
      "Ġdispatch": 3555,
      "Ġlanguage": 3556,
      "writing": 3557,
      "Ġbinascii": 3558,
      "(\\": 3559,
      ".%": 3560,
      "822": 3561,
      "ASCII": 3562,
      "CK": 3563,
      "CL": 3564,
      "CHA": 3565,
      "FUN": 3566,
      "NU": 3567,
      "RC": 3568,
      "VAL": 3569,
      "bad": 3570,
      "cent": 3571,
      "pha": 3572,
      "tab": 3573,
      "resp": 3574,
      "Ġtri": 3575,
      "ors": 3576,
      "Ġim": 3577,
      "Ġimplemented": 3578,
      "dest": 3579,
      "Ġequal": 3580,
      "undef": 3581,
      "ilar": 3582,
      "Ġord": 3583,
      "ĠIter": 3584,
      "Ġdigest": 3585,
      "Ġprob": 3586,
      "Ġgot": 3587,
      "Ġweakref": 3588,
      "Ġfunctools": 3589,
      "column": 3590,
      "Ġpassword": 3591,
      "sources": 3592,
      "notations": 3593,
      "ITER": 3594,
      "Ġcommands": 3595,
      "COM": 3596,
      "Ġmanifest": 3597,
      "abspath": 3598,
      "Ġissubclass": 3599,
      "Ġcompression": 3600,
      "ponse": 3601,
      "({": 3602,
      "MAT": 3603,
      "Writer": 3604,
      "Xcode": 3605,
      "]]": 3606,
      "}')": 3607,
      "Ġvar": 3608,
      "lex": 3609,
      "ended": 3610,
      "itive": 3611,
      "Ġwrapped": 3612,
      "Ġduring": 3613,
      "Ġ(%": 3614,
      "Ġtok": 3615,
      "pper": 3616,
      "may": 3617,
      "mage": 3618,
      "ĠAdd": 3619,
      "ĠEn": 3620,
      "Ġcallers": 3621,
      "board": 3622,
      "Ġfutures": 3623,
      "Ġtemplate": 3624,
      "XMLRPC": 3625,
      "Ġquoted": 3626,
      "fields": 3627,
      "Applications": 3628,
      "Ġsupplied": 3629,
      "Ġappear": 3630,
      "40": 3631,
      "BE": 3632,
      "CCompiler": 3633,
      "GORY": 3634,
      "ImportError": 3635,
      "Mapp": 3636,
      "binary": 3637,
      "closing": 3638,
      "fallback": 3639,
      "gits": 3640,
      "json": 3641,
      "lt": 3642,
      "ler": 3643,
      "rate": 3644,
      "rstrip": 3645,
      "},": 3646,
      "resh": 3647,
      "Ġfilter": 3648,
      "Ġpad": 3649,
      "Ġequivalent": 3650,
      "Ġwriter": 3651,
      "Ġdid": 3652,
      "lash": 3653,
      "isdir": 3654,
      "isting": 3655,
      "ĠPy": 3656,
      "INT": 3657,
      "show": 3658,
      "ĠMessage": 3659,
      "Ġparams": 3660,
      "lated": 3661,
      "dom": 3662,
      "Ġabsolute": 3663,
      "Config": 3664,
      "variate": 3665,
      "datetime": 3666,
      "uble": 3667,
      "Ġexplicit": 3668,
      "comment": 3669,
      "blocking": 3670,
      "whitespace": 3671,
      "ATEGORY": 3672,
      "ĠQueue": 3673,
      "generate": 3674,
      "qualname": 3675,
      "Ġtyping": 3676,
      "password": 3677,
      "Temporary": 3678,
      "rgument": 3679,
      "Defect": 3680,
      "staticmethod": 3681,
      "cognized": 3682,
      "21": 3683,
      "CC": 3684,
      "Called": 3685,
      "Enum": 3686,
      "TML": 3687,
      "User": 3688,
      "]))": 3689,
      "dry": 3690,
      "dden": 3691,
      "ident": 3692,
      "ject": 3693,
      "normal": 3694,
      "spect": 3695,
      "ward": 3696,
      "real": 3697,
      "Ġregistered": 3698,
      "Ġpack": 3699,
      "Ġwarning": 3700,
      "mpath": 3701,
      "uter": 3702,
      "Ġ(?": 3703,
      "Ġ(_": 3704,
      "Ġseen": 3705,
      "Ġseek": 3706,
      "ĠCATEGORY": 3707,
      "ĠASCII": 3708,
      "outines": 3709,
      "Ġcho": 3710,
      "pyc": 3711,
      "imum": 3712,
      "[:]": 3713,
      "distutils": 3714,
      "Ġcorrect": 3715,
      "ldflags": 3716,
      "Ġfinish": 3717,
      "Ġallowance": 3718,
      "Ġconfiguration": 3719,
      "Ġcreating": 3720,
      "fspath": 3721,
      "Generator": 3722,
      "Ġescape": 3723,
      "supported": 3724,
      "separator": 3725,
      "30": 3726,
      "44": 3727,
      "70": 3728,
      "Add": 3729,
      "Implement": 3730,
      "Over": 3731,
      "git": 3732,
      "ike": 3733,
      "scan": 3734,
      "Ġtorch": 3735,
      "ĠĠĠĠĠĠĠĠĠĠ": 3736,
      "Ġreceived": 3737,
      "Ġscheme": 3738,
      "loc": 3739,
      "Ġ\"'": 3740,
      "Ġstri": 3741,
      "peat": 3742,
      "Ġsection": 3743,
      "ĠSS": 3744,
      "Ġmemo": 3745,
      "Ġcontrol": 3746,
      "Ġattemp": 3747,
      "way": 3748,
      "wakeup": 3749,
      "Ġlar": 3750,
      "Ġpool": 3751,
      "Ġpartial": 3752,
      "subclass": 3753,
      "coroutine": 3754,
      "Ġmatching": 3755,
      "ULL": 3756,
      "PYTHON": 3757,
      "Ġtermin": 3758,
      "ANCE": 3759,
      "Ġusage": 3760,
      "Ġeverything": 3761,
      "WAIT": 3762,
      "boardInterrupt": 3763,
      "Mapping": 3764,
      "Meta": 3765,
      "NL": 3766,
      "Workspace": 3767,
      "dated": 3768,
      "drive": 3769,
      "hing": 3770,
      "mime": 3771,
      "ource": 3772,
      "pure": 3773,
      "when": 3774,
      "Ġfds": 3775,
      "Ġcte": 3776,
      "ĠĠĠĠĠĠĠĠĠĠĠ": 3777,
      "Ġplace": 3778,
      "Ġsite": 3779,
      "Ġduplic": 3780,
      "__:": 3781,
      "fici": 3782,
      "Ġconversion": 3783,
      "ĠSyntax": 3784,
      "lying": 3785,
      "abled": 3786,
      "ĊĊĠ": 3787,
      "ĠCheck": 3788,
      "ĠCCompiler": 3789,
      "ĠAI": 3790,
      "ured": 3791,
      "ures": 3792,
      "Ġnegative": 3793,
      "importer": 3794,
      "Ġdomain": 3795,
      "ĠMSV": 3796,
      "andling": 3797,
      "``,": 3798,
      "pair": 3799,
      "position": 3800,
      "Ġworks": 3801,
      "quiet": 3802,
      "Ġupdate": 3803,
      "COMP": 3804,
      "Ġsomething": 3805,
      "symb": 3806,
      "ĠToken": 3807,
      "________": 3808,
      "---+": 3809,
      "ummary": 3810,
      "mediately": 3811,
      "HANDLE": 3812,
      "FoundError": 3813,
      "arison": 3814,
      "Ġexpression": 3815,
      "ĠPEP": 3816,
      "EK": 3817,
      "END": 3818,
      "Man": 3819,
      "Time": 3820,
      "USER": 3821,
      "Wl": 3822,
      "bar": 3823,
      "card": 3824,
      "oci": 3825,
      "ored": 3826,
      "ql": 3827,
      "ĠK": 3828,
      "sen": 3829,
      "ater": 3830,
      "Ġfallback": 3831,
      "Ġcc": 3832,
      "Ġcy": 3833,
      "Ġret": 3834,
      "Ġreally": 3835,
      "Ġremain": 3836,
      "ctypes": 3837,
      "Ġwrap": 3838,
      "Ġms": 3839,
      "Ġisn": 3840,
      "core": 3841,
      "isfile": 3842,
      "Ġbest": 3843,
      "Ġseconds": 3844,
      "Ġhand": 3845,
      "Ġhigh": 3846,
      "pathname": 3847,
      "('%": 3848,
      "ational": 3849,
      "macros": 3850,
      "rypt": 3851,
      "ĠString": 3852,
      "contain": 3853,
      "Ġproble": 3854,
      "Ġshow": 3855,
      "Ġreadable": 3856,
      "rena": 3857,
      "Ġlambda": 3858,
      "Ġ'.'": 3859,
      "Ġversions": 3860,
      "Protocol": 3861,
      "maxsize": 3862,
      "userbase": 3863,
      "Ġoptim": 3864,
      "Ġ'/'": 3865,
      "cannot": 3866,
      "BUIL": 3867,
      "TestCase": 3868,
      "Response": 3869,
      "Ġactual": 3870,
      "Ġrequires": 3871,
      "ĠBaseException": 3872,
      "Ġrepresentation": 3873,
      "darwin": 3874,
      "Ġoverride": 3875,
      "termine": 3876,
      "Ġcorresponding": 3877,
      "'ll": 3878,
      "'\\\\": 3879,
      "IC": 3880,
      "MIN": 3881,
      "OT": 3882,
      "Same": 3883,
      "cing": 3884,
      "family": 3885,
      "got": 3886,
      "ln": 3887,
      "non": 3888,
      "td": 3889,
      "Ġfilters": 3890,
      "Ġcate": 3891,
      "ĠĠĠĠĠĠĠĠĠĠĠĠĠĠĠ": 3892,
      "Ġrel": 3893,
      "Ġpending": 3894,
      "Ġ':": 3895,
      "Ġembed": 3896,
      "defect": 3897,
      "Ġdump": 3898,
      "counter": 3899,
      "lain": 3900,
      "Ġstuff": 3901,
      "Ġcomm": 3902,
      "Ġbelow": 3903,
      "ĠST": 3904,
      "ĠCO": 3905,
      "Ġarbit": 3906,
      "Ġ20": 3907,
      "Ġpayload": 3908,
      "Ġ..": 3909,
      "formats": 3910,
      "Ġopened": 3911,
      "platlib": 3912,
      "CESS": 3913,
      "Decode": 3914,
      "Ġallowed": 3915,
      "Ġassoci": 3916,
      "Ġelements": 3917,
      "norm": 3918,
      "forkserver": 3919,
      "ĠIndexError": 3920,
      "Ġsoftware": 3921,
      "ITERAL": 3922,
      "'{": 3923,
      ",)": 3924,
      "31": 3925,
      "Hel": 3926,
      "Plat": 3927,
      "Wno": 3928,
      "aw": 3929,
      "crc": 3930,
      "filters": 3931,
      "ias": 3932,
      "wb": 3933,
      "}'": 3934,
      "sem": 3935,
      "inery": 3936,
      "Ġtake": 3937,
      "Ġtell": 3938,
      "eric": 3939,
      "ster": 3940,
      "stall": 3941,
      "ards": 3942,
      "Ġregex": 3943,
      "Ġsig": 3944,
      "Ġbits": 3945,
      "Ġinsert": 3946,
      "ileError": 3947,
      "Ġdefine": 3948,
      "cker": 3949,
      "Ġasyncio": 3950,
      "ĠSO": 3951,
      "ĠSimple": 3952,
      "Ġ[(": 3953,
      "Ġprompt": 3954,
      "proto": 3955,
      "ĠDon": 3956,
      "RED": 3957,
      "INTER": 3958,
      "ĠMake": 3959,
      "Ġlex": 3960,
      "Ġcurses": 3961,
      "feature": 3962,
      "rence": 3963,
      "Ġsources": 3964,
      "acy": 3965,
      "Ġmessages": 3966,
      "Ġcompiled": 3967,
      "ĠKeyboardInterrupt": 3968,
      "CONFIG": 3969,
      "Socket": 3970,
      "PREFIX": 3971,
      "Token": 3972,
      "Document": 3973,
      "Executor": 3974,
      "Ġimmediately": 3975,
      ".*": 3976,
      "47": 3977,
      "AS": 3978,
      "Ent": 3979,
      "EST": 3980,
      "IP": 3981,
      "La": 3982,
      "Method": 3983,
      "URE": 3984,
      "USE": 3985,
      "VAR": 3986,
      "cer": 3987,
      "null": 3988,
      "uint": 3989,
      "where": 3990,
      "insert": 3991,
      "Ġclean": 3992,
      "ĠĠĠĠĠĠĠĠĠĠĠĠĠ": 3993,
      "Ġsimp": 3994,
      "Ġschedule": 3995,
      "Ġinherit": 3996,
      "ctet": 3997,
      "Ġdrive": 3998,
      "fim": 3999,
      "asyncio": 4000,
      "Ġdecor": 4001,
      "igin": 4002,
      "latin": 4003,
      "collections": 4004,
      "Ġstarting": 4005,
      "methods": 4006,
      "sentinel": 4007,
      "waiters": 4008,
      "Ġcollect": 4009,
      "Ġstatic": 4010,
      "ĠDistribution": 4011,
      "Ġblocks": 4012,
      "Ġbytearray": 4013,
      "Ġactive": 4014,
      "condition": 4015,
      "Ġchanged": 4016,
      "manifest": 4017,
      "Ġdesc": 4018,
      "================================": 4019,
      "RequestHandler": 4020,
      "ragment": 4021,
      "Ġoverridden": 4022,
      "Ġ----------------------------------------------------------------": 4023,
      "URCE": 4024,
      "Ġwriting": 4025,
      "overlapped": 4026,
      "ynchronous": 4027,
      "Ġcomment": 4028,
      "versal": 4029,
      "Ġpickle": 4030,
      "ĠSSL": 4031,
      "57": 4032,
      "cnt": 4033,
      "cpp": 4034,
      "eature": 4035,
      "fmt": 4036,
      "gic": 4037,
      "sign": 4038,
      "vate": 4039,
      "see": 4040,
      "leInternal": 4041,
      "Ġfactory": 4042,
      "aration": 4043,
      "Ġreverse": 4044,
      "Ġpur": 4045,
      "Ġok": 4046,
      "Ġbad": 4047,
      "Ġblank": 4048,
      "Ġ''.": 4049,
      "ions": 4050,
      "Ġmy": 4051,
      "Ġdot": 4052,
      "lias": 4053,
      "Ġ\",": 4054,
      "cho": 4055,
      "Ġhandling": 4056,
      "('<": 4057,
      "('.')": 4058,
      "Ġloc": 4059,
      "Ġmetadata": 4060,
      "soon": 4061,
      "ĠCON": 4062,
      "Ġprovid": 4063,
      "Ġwhy": 4064,
      "icen": 4065,
      "ĠName": 4066,
      "ĠNode": 4067,
      "ĠOF": 4068,
      "ĠEnum": 4069,
      "backend": 4070,
      "job": 4071,
      "Ġleading": 4072,
      "ĠUT": 4073,
      "ĊĠĠĠĠĠĠĠĠĠĠĠĠĠĠĠĠĠĠĠĠĠĠĠĠĠĠĠĠĠĠĠĠĠ": 4074,
      "ifc": 4075,
      "okup": 4076,
      "cessed": 4077,
      "ITH": 4078,
      "ystems": 4079,
      "funcs": 4080,
      "AGE": 4081,
      "Command": 4082,
      "Ġthreads": 4083,
      "cording": 4084,
      "Ġgeneric": 4085,
      "expand": 4086,
      "ancelledError": 4087,
      "SYS": 4088,
      "ĠNOT": 4089,
      "Ġbuiltins": 4090,
      "Ġsmall": 4091,
      ".,": 4092,
      "27": 4093,
      "DK": 4094,
      "LS": 4095,
      "Py": 4096,
      "Popen": 4097,
      "US": 4098,
      "Value": 4099,
      "cp": 4100,
      "cmp": 4101,
      "ever": 4102,
      "ire": 4103,
      "olicy": 4104,
      "vc": 4105,
      "ink": 4106,
      "rer": 4107,
      "resol": 4108,
      "Ġtimer": 4109,
      "Ġresume": 4110,
      "Ġph": 4111,
      "Ġ'')": 4112,
      "router": 4113,
      "Ġsen": 4114,
      "Ġsession": 4115,
      "Ġ100": 4116,
      "linelen": 4117,
      "ĠCode": 4118,
      "Ġglob": 4119,
      "Ġarray": 4120,
      "Ġgetopt": 4121,
      "Ġsets": 4122,
      "ĠEach": 4123,
      "Ġunicode": 4124,
      "tach": 4125,
      "Ġliteral": 4126,
      "Ġcodec": 4127,
      "pose": 4128,
      "Exec": 4129,
      "ynam": 4130,
      "Include": 4131,
      "defaults": 4132,
      "splitext": 4133,
      "CEPT": 4134,
      "Ġcoroutines": 4135,
      "Ġprocessing": 4136,
      "resses": 4137,
      "Ġcases": 4138,
      "printable": 4139,
      "generator": 4140,
      "VERSION": 4141,
      "AppleInternal": 4142,
      "postargs": 4143,
      "WORD": 4144,
      "UDIO": 4145,
      "ĠThat": 4146,
      "Ġsimilar": 4147,
      "Ġalgorithm": 4148,
      "ĠDefault": 4149,
      "Ġcategory": 4150,
      "-%": 4151,
      "60": 4152,
      "Close": 4153,
      "End": 4154,
      "If": 4155,
      "PM": 4156,
      "Str": 4157,
      "flow": 4158,
      "gram": 4159,
      "rx": 4160,
      "uar": 4161,
      "}\",": 4162,
      "Ġta": 4163,
      "Ġtitle": 4164,
      "original": 4165,
      "Ġinspect": 4166,
      "Ġmask": 4167,
      "Ġannotations": 4168,
      "pprint": 4169,
      "Ġhi": 4170,
      "ability": 4171,
      "ackend": 4172,
      "entity": 4173,
      "Ġdepen": 4174,
      "Ġprof": 4175,
      "Ġrate": 4176,
      "Ġhex": 4177,
      "ĠOver": 4178,
      "Ġparsed": 4179,
      "Ġouter": 4180,
      "based": 4181,
      "oked": 4182,
      "argin": 4183,
      "owner": 4184,
      "Ġworker": 4185,
      "Ġdirs": 4186,
      "NODE": 4187,
      "subtype": 4188,
      "sax": 4189,
      "annel": 4190,
      "Ġtasks": 4191,
      "Ġplatforms": 4192,
      "uthkey": 4193,
      "Ġrepresenting": 4194,
      "multi": 4195,
      "ummy": 4196,
      "kipped": 4197,
      "Ġlonger": 4198,
      "Ġlarge": 4199,
      "Ġassociated": 4200,
      "ExecError": 4201,
      "17": 4202,
      "BIN": 4203,
      "EM": 4204,
      "IR": 4205,
      "ffici": 4206,
      "gt": 4207,
      "gwin": 4208,
      "mtime": 4209,
      "mant": 4210,
      "simple": 4211,
      "tty": 4212,
      "xf": 4213,
      "yld": 4214,
      "Ġuri": 4215,
      "into": 4216,
      "internal": 4217,
      "Ġcancel": 4218,
      "Ġclear": 4219,
      "ced": 4220,
      "Ġeffect": 4221,
      "utable": 4222,
      "Ġdown": 4223,
      "cover": 4224,
      "div": 4225,
      "Ġbecome": 4226,
      "Ġho": 4227,
      "Ġcondition": 4228,
      "istory": 4229,
      "Ġdele": 4230,
      "Ġmac": 4231,
      "ersist": 4232,
      "Ġdatabase": 4233,
      "found": 4234,
      "icro": 4235,
      "clus": 4236,
      "Ġunless": 4237,
      "Ġpairs": 4238,
      "Ġlists": 4239,
      "ĠLicen": 4240,
      "ATION": 4241,
      "ĊĠĠĠĠĠĠĠĠĠĠĠĠĠĠĠĠĠĠĠĠĠĠĠĠĠĠĠĠĠĠĠĠĠĠĠĠ": 4242,
      "called": 4243,
      "callers": 4244,
      "Ġbases": 4245,
      "Ġframework": 4246,
      "errno": 4247,
      "sysroot": 4248,
      "ĠReg": 4249,
      "ĠRead": 4250,
      "oft": 4251,
      "UND": 4252,
      "Ġimplementations": 4253,
      "Ġitertools": 4254,
      "Ġgenerate": 4255,
      "ĠDistutilsExecError": 4256,
      "Ġprovide": 4257,
      "Ġoperations": 4258,
      "Headers": 4259,
      "Ġqname": 4260,
      "rawq": 4261,
      "compressor": 4262,
      "days": 4263,
      "Ġunderlying": 4264,
      "NotFoundError": 4265,
      "trie": 4266,
      "SUF": 4267,
      "Builder": 4268,
      "ĠRaises": 4269,
      "changed": 4270,
      "OptionError": 4271,
      "ANCEL": 4272,
      "Manager": 4273,
      "Ġarbitrary": 4274,
      "clusive": 4275,
      "ECT": 4276,
      "EVENT": 4277,
      "JECT": 4278,
      "df": 4279,
      "eq": 4280,
      "evel": 4281,
      "rt": 4282,
      "scheme": 4283,
      "details": 4284,
      "deepcopy": 4285,
      "Ġsw": 4286,
      "Ġsum": 4287,
      "Ġ'$": 4288,
      "utco": 4289,
      "Ġ_,": 4290,
      "getopt": 4291,
      "Ġfileobj": 4292,
      "ids": 4293,
      "setdefault": 4294,
      "(\"/": 4295,
      "Ġproto": 4296,
      "Ġguess": 4297,
      "ics": 4298,
      "ĠDOM": 4299,
      "RECT": 4300,
      "typ": 4301,
      "Ġcomparison": 4302,
      "Ġresulting": 4303,
      "Ġadds": 4304,
      "pairs": 4305,
      "pool": 4306,
      "workers": 4307,
      "feed": 4308,
      "Ġruns": 4309,
      "Ġdirname": 4310,
      "Comple": 4311,
      "MAP": 4312,
      "available": 4313,
      "Ġoperator": 4314,
      "Ġweekday": 4315,
      "steps": 4316,
      "Ġbehavior": 4317,
      "VARS": 4318,
      "utcoff": 4319,
      "AW": 4320,
      "BLE": 4321,
      "Object": 4322,
      "PORT": 4323,
      "ROR": 4324,
      "SGI": 4325,
      "WN": 4326,
      "client": 4327,
      "dylib": 4328,
      "email": 4329,
      "flag": 4330,
      "mu": 4331,
      "ov": 4332,
      "udo": 4333,
      "Ġ~": 4334,
      "Ġ64": 4335,
      "seudo": 4336,
      "Ġtre": 4337,
      "alive": 4338,
      "Ġscan": 4339,
      "Ġsystems": 4340,
      "ross": 4341,
      "Ġmk": 4342,
      "named": 4343,
      "Ġfork": 4344,
      "Ġnothing": 4345,
      "Ġexpect": 4346,
      "asse": 4347,
      "mac": 4348,
      "mach": 4349,
      "Ġmaint": 4350,
      "(\"\\": 4351,
      "listener": 4352,
      "===": 4353,
      "quent": 4354,
      "icular": 4355,
      "STRE": 4356,
      "pick": 4357,
      "Ġ|=": 4358,
      "splitlines": 4359,
      "ĠGet": 4360,
      "Ġparticular": 4361,
      "TENT": 4362,
      "Ġentire": 4363,
      "template": 4364,
      "Ġexecuted": 4365,
      "cased": 4366,
      "Trans": 4367,
      "normpath": 4368,
      "EventLoop": 4369,
      "trics": 4370,
      "Ġalias": 4371,
      "Ġincluding": 4372,
      "Ġshell": 4373,
      "Ġspecifies": 4374,
      "maybe": 4375,
      "Ġstripped": 4376,
      "ĠMSVC": 4377,
      "oftware": 4378,
      "ANCELLED": 4379,
      "23": 4380,
      "26": 4381,
      "90": 4382,
      "Alias": 4383,
      "CRE": 4384,
      "Cancel": 4385,
      "DING": 4386,
      "SF": 4387,
      "Wait": 4388,
      "but": 4389,
      "free": 4390,
      "lg": 4391,
      "ob": 4392,
      "pkg": 4393,
      "sdk": 4394,
      "Ġaround": 4395,
      "metadata": 4396,
      "ĠĠĠĠĠĠĠĠĠĠĠĠĠĠ": 4397,
      "itory": 4398,
      "Ġpoll": 4399,
      "Ġedit": 4400,
      "loor": 4401,
      "Ġdll": 4402,
      "lies": 4403,
      "light": 4404,
      "Ġstored": 4405,
      "Ġthough": 4406,
      "maint": 4407,
      "Ġdepend": 4408,
      "Ġdevice": 4409,
      "Ġdelete": 4410,
      "(\"<": 4411,
      "Ġaltern": 4412,
      "Ġwithin": 4413,
      "ĠPer": 4414,
      "Ġcontro": 4415,
      "Ġsysconfig": 4416,
      "ĠER": 4417,
      "Ġtimestamp": 4418,
      "bases": 4419,
      "Ġleg": 4420,
      "paused": 4421,
      "Ġadditional": 4422,
      "Ġabs": 4423,
      "Ġaccording": 4424,
      "weakref": 4425,
      "CODING": 4426,
      "Ġmodify": 4427,
      "Ġvarious": 4428,
      "Ġcomplex": 4429,
      "Ġmanager": 4430,
      "raph": 4431,
      "clean": 4432,
      "Ġinitializer": 4433,
      "extract": 4434,
      "Ġassign": 4435,
      "ferred": 4436,
      "Ġstacklevel": 4437,
      "Generic": 4438,
      "ĠInternal": 4439,
      "Ġ------------------------------------------------": 4440,
      "Ġagain": 4441,
      "ĠBytesIO": 4442,
      "Ġcomponents": 4443,
      "urrogate": 4444,
      "contains": 4445,
      "fficient": 4446,
      "\"',": 4447,
      "((\"": 4448,
      ")],": 4449,
      "77": 4450,
      ":])": 4451,
      "CP": 4452,
      "Dis": 4453,
      "Feature": 4454,
      "IM": 4455,
      "NULL": 4456,
      "SMTP": 4457,
      "big": 4458,
      "dot": 4459,
      "na": 4460,
      "pm": 4461,
      "ton": 4462,
      "vis": 4463,
      "sel": 4464,
      "stmt": 4465,
      "Ġsave": 4466,
      "Ġdt": 4467,
      "existing": 4468,
      "__\",": 4469,
      "peer": 4470,
      "Ġcover": 4471,
      "Ġconstruct": 4472,
      "Ġ199": 4473,
      "pathsep": 4474,
      "ĠSystem": 4475,
      "Ġdetermin": 4476,
      "sole": 4477,
      "Ġproc": 4478,
      "ĠMac": 4479,
      "Ġunknown": 4480,
      "Ġpreserve": 4481,
      "Ġ{\"": 4482,
      "Ġoutfile": 4483,
      "usage": 4484,
      "acter": 4485,
      "LETED": 4486,
      "Ġstarts": 4487,
      "Ġmaximum": 4488,
      "ĠInvalid": 4489,
      "Ġ/,": 4490,
      "Ġpackages": 4491,
      "Proactor": 4492,
      "refs": 4493,
      "Ġstats": 4494,
      "Ġstatistics": 4495,
      "1234": 4496,
      "coming": 4497,
      "commands": 4498,
      "Ġmultiprocessing": 4499,
      "Ġinitialize": 4500,
      "Ġchildren": 4501,
      "Ġcalc": 4502,
      "returncode": 4503,
      "Ġreduction": 4504,
      "Ġoccurred": 4505,
      "ĠHeader": 4506,
      "Ġnorm": 4507,
      "Ġexplicitly": 4508,
      "ĠAIFF": 4509,
      "symbols": 4510,
      "ĠUTF": 4511,
      "ynamic": 4512,
      "STREAM": 4513,
      ")\\": 4514,
      ".'": 4515,
      "38": 4516,
      ":%": 4517,
      "FJ": 4518,
      "Filter": 4519,
      "Finder": 4520,
      "Like": 4521,
      "Mult": 4522,
      "Mode": 4523,
      "Ro": 4524,
      "aded": 4525,
      "crypt": 4526,
      "uuid": 4527,
      "walk": 4528,
      "ination": 4529,
      "inner": 4530,
      "med": 4531,
      "men": 4532,
      "Ġfname": 4533,
      "align": 4534,
      "\"\",": 4535,
      "Ġpl": 4536,
      "unregister": 4537,
      "ulong": 4538,
      "ĠTest": 4539,
      "rial": 4540,
      "(\"--": 4541,
      "----------": 4542,
      "ĠAIX": 4543,
      "Ġrather": 4544,
      "prompt": 4545,
      "Ġlinecache": 4546,
      "INET": 4547,
      "ĠUN": 4548,
      "ĠUser": 4549,
      "ives": 4550,
      "need": 4551,
      "Ġjson": 4552,
      "Ġworkers": 4553,
      "IOBase": 4554,
      "ĠConnection": 4555,
      "bits": 4556,
      "ĠComple": 4557,
      "ĠCommand": 4558,
      "DOM": 4559,
      "Ġfeed": 4560,
      "Ġterm": 4561,
      "Directory": 4562,
      "Ġfinalize": 4563,
      "nframeswritten": 4564,
      "ĠAny": 4565,
      "markers": 4566,
      "Ġincluded": 4567,
      "oolean": 4568,
      "BUILD": 4569,
      "Platform": 4570,
      "resolve": 4571,
      "Ġdependen": 4572,
      "18": 4573,
      "36": 4574,
      "76": 4575,
      ":-": 4576,
      "From": 4577,
      "FIN": 4578,
      "Mix": 4579,
      "alect": 4580,
      "jor": 4581,
      "my": 4582,
      "mro": 4583,
      "must": 4584,
      "missing": 4585,
      "rfc": 4586,
      "tk": 4587,
      "ux": 4588,
      "}',": 4589,
      "reverse": 4590,
      "once": 4591,
      "Ġfall": 4592,
      "arily": 4593,
      "ural": 4594,
      "Ġbpo": 4595,
      "Ġeval": 4596,
      "Ġ##": 4597,
      "Ġmat": 4598,
      "Ġmiddle": 4599,
      "()[": 4600,
      "Ġstyle": 4601,
      "('/": 4602,
      "mapping": 4603,
      "ĠSMTP": 4604,
      "sets": 4605,
      "Ġmade": 4606,
      "Ġmacros": 4607,
      "ĠAT": 4608,
      "ĠApp": 4609,
      "Ġsuite": 4610,
      "Ġchain": 4611,
      "apple": 4612,
      "Ġwho": 4613,
      "Ġshutil": 4614,
      "``.": 4615,
      "STEM": 4616,
      "ITY": 4617,
      "Index": 4618,
      "Ġtesting": 4619,
      "ĠRequest": 4620,
      "Ġsockets": 4621,
      "urllib": 4622,
      "Ġerrno": 4623,
      "Ġdistributions": 4624,
      "ĠQu": 4625,
      "executor": 4626,
      "QUAL": 4627,
      "ABC": 4628,
      "ABLE": 4629,
      "Ġselectors": 4630,
      "Ġdisplay": 4631,
      "Ġfails": 4632,
      "connected": 4633,
      "FORMAT": 4634,
      "Async": 4635,
      "SHARED": 4636,
      "ircular": 4637,
      "Cannot": 4638,
      "Ġprobably": 4639,
      "Ġcycle": 4640,
      "SUFFIX": 4641,
      "\"])": 4642,
      ")*": 4643,
      "50": 4644,
      "54": 4645,
      "Abstract": 4646,
      "LIN": 4647,
      "Open": 4648,
      "TR": 4649,
      "Up": 4650,
      "cum": 4651,
      "gre": 4652,
      "ick": 4653,
      "just": 4654,
      "mon": 4655,
      "ng": 4656,
      "oS": 4657,
      "upper": 4658,
      "}\"": 4659,
      "Ġftp": 4660,
      "Ġcer": 4661,
      "encoder": 4662,
      "Ġrece": 4663,
      "Ġpush": 4664,
      "Ġmath": 4665,
      "Ġ((": 4666,
      "this": 4667,
      "Ġfileno": 4668,
      "ĠSh": 4669,
      "Ġmail": 4670,
      "ĠAN": 4671,
      "Ġsuit": 4672,
      "ĠPre": 4673,
      "datalength": 4674,
      "preargs": 4675,
      "proc": 4676,
      "Ġ256": 4677,
      "Ġdouble": 4678,
      "ĠNow": 4679,
      "ĠNeed": 4680,
      "timezone": 4681,
      "ĠEMPTY": 4682,
      "compressed": 4683,
      "Ġprevent": 4684,
      "Ġyiel": 4685,
      "ĠURL": 4686,
      "locked": 4687,
      "mount": 4688,
      "spaces": 4689,
      "mitted": 4690,
      "Ġcare": 4691,
      "Ġbuilding": 4692,
      "levels": 4693,
      "Ġchunksize": 4694,
      "Ġtokenize": 4695,
      "Cookie": 4696,
      ":]:": 4697,
      "ĠDistutilsPlatform": 4698,
      "Ġtempfile": 4699,
      "ĊĠĠĠĠĠĠĠĠĠĠĠĠĠĠĠĠĠĠĠĠĠĠĠĠĠĠĠĠĠĠĠĠĠĠĠĠĠĠĠĠĠĠ": 4700,
      "Iterator": 4701,
      "ification": 4702,
      "################################################################": 4703,
      "finalize": 4704,
      "Ġwritable": 4705,
      "ĠHTTPException": 4706,
      "Format": 4707,
      "voke": 4708,
      "Ġexactly": 4709,
      "CHAR": 4710,
      "purelib": 4711,
      "Ġscheduled": 4712,
      "ĠDistutilsPlatformError": 4713,
      "\"{": 4714,
      "'[": 4715,
      ")\",": 4716,
      "An": 4717,
      "CN": 4718,
      "GEN": 4719,
      "MT": 4720,
      "Number": 4721,
      "PAR": 4722,
      "Write": 4723,
      "XU": 4724,
      "_'": 4725,
      "arena": 4726,
      "embed": 4727,
      "patch": 4728,
      "sm": 4729,
      "sage": 4730,
      "slash": 4731,
      "inf": 4732,
      "Ġtar": 4733,
      "Ġturn": 4734,
      "ceed": 4735,
      "Ġpe": 4736,
      "Ġpp": 4737,
      "Ġpkg": 4738,
      "Ġsre": 4739,
      "Ġbo": 4740,
      "Ġwon": 4741,
      "Ġwindow": 4742,
      "Ġmis": 4743,
      "unch": 4744,
      "()`": 4745,
      "Ġcounter": 4746,
      "versed": 4747,
      "Ġconcurrent": 4748,
      "Ġloaded": 4749,
      "Ġproperty": 4750,
      "keywords": 4751,
      "Ġgets": 4752,
      "ĠNormal": 4753,
      "Ġunit": 4754,
      "Ġunpack": 4755,
      "Ġ>>": 4756,
      "DENT": 4757,
      "results": 4758,
      "sysconfig": 4759,
      "ĠĠĠĠĠĠĠĠĠĠĠĠĠĠĠĠĠĠĠ": 4760,
      "Ġchecked": 4761,
      "exceptions": 4762,
      "Ġimplements": 4763,
      "Ġoptimize": 4764,
      "ĠDistutilsOptionError": 4765,
      "Ġbytecode": 4766,
      "crete": 4767,
      "Inter": 4768,
      "Setup": 4769,
      "delta": 4770,
      "Encoding": 4771,
      "symlink": 4772,
      "aiforge": 4773,
      "LOCK": 4774,
      "ENCODING": 4775,
      "ĠCompileError": 4776,
      "BuildRo": 4777,
      "RLF": 4778,
      "Ġmuch": 4779,
      "ĠStreamReader": 4780,
      "ĠZipImportError": 4781,
      "ĊĊĊČ": 4782,
      "priority": 4783,
      "ĠIterator": 4784,
      "Ġremaining": 4785,
      "Ġdescrib": 4786,
      "icrosoft": 4787,
      "ĠERROR": 4788,
      "!)": 4789,
      "?)": 4790,
      "Ar": 4791,
      "AND": 4792,
      "BOM": 4793,
      "FHe": 4794,
      "Ite": 4795,
      "KM": 4796,
      "Kug": 4797,
      "LXU": 4798,
      "More": 4799,
      "NR": 4800,
      "Random": 4801,
      "Send": 4802,
      "Sub": 4803,
      "TRI": 4804,
      "TRA": 4805,
      "We": 4806,
      "cat": 4807,
      "lper": 4808,
      "lKug": 4809,
      "none": 4810,
      "ties": 4811,
      "uKM": 4812,
      "wning": 4813,
      "wcm": 4814,
      "yWl": 4815,
      "|\\": 4816,
      "Ġtmsg": 4817,
      "Ġfmt": 4818,
      "Ġcfg": 4819,
      "Ġrecord": 4820,
      "Ġpatch": 4821,
      "ante": 4822,
      "Ġinv": 4823,
      "unlink": 4824,
      "lian": 4825,
      "()))": 4826,
      "chat": 4827,
      "Ġexternal": 4828,
      "didate": 4829,
      "ĠTime": 4830,
      "entities": 4831,
      "izers": 4832,
      "Ġdetail": 4833,
      "Ġlocation": 4834,
      "Ġmedian": 4835,
      "cons": 4836,
      "ĠAt": 4837,
      "Ġsetting": 4838,
      "Ġ204": 4839,
      "ĠMAX": 4840,
      "Ġunchanged": 4841,
      "Ġ{!": 4842,
      "MEj": 4843,
      "ĠBreak": 4844,
      "calc": 4845,
      "doctype": 4846,
      "Ġsubtype": 4847,
      "Ġchars": 4848,
      "Ġmaxlinelen": 4849,
      "dicts": 4850,
      "PEND": 4851,
      "Ġposix": 4852,
      "SIX": 4853,
      "Ġoverlapped": 4854,
      "Ġfold": 4855,
      "Ġallows": 4856,
      "BUuKM": 4857,
      "Ġfollowed": 4858,
      "Ġmulti": 4859,
      "ference": 4860,
      "aving": 4861,
      "EXE": 4862,
      "Ġbetter": 4863,
      "Ġresources": 4864,
      "lastEvent": 4865,
      "ights": 4866,
      "Ġconverted": 4867,
      "Ġnamespaces": 4868,
      "finalized": 4869,
      "Ġnumeric": 4870,
      "Ġpoints": 4871,
      "Ġlower": 4872,
      "builtins": 4873,
      "ĠAlso": 4874,
      "Ġwrong": 4875,
      "Ġdelimiter": 4876,
      "swig": 4877,
      "uarante": 4878,
      "FJFHe": 4879,
      "CNlKug": 4880,
      "BuildRoots": 4881,
      "LXUyWl": 4882,
      "wcmLXUyWl": 4883,
      "FJFHeNR": 4884,
      "CNlKugBUuKM": 4885,
      "wcmLXUyWlLa": 4886,
      ")\"),": 4887,
      "29": 4888,
      "43": 4889,
      ">%": 4890,
      "Browser": 4891,
      "CUR": 4892,
      "Level": 4893,
      "]'": 4894,
      "aut": 4895,
      "author": 4896,
      "ders": 4897,
      "font": 4898,
      "gi": 4899,
      "ially": 4900,
      "image": 4901,
      "ock": 4902,
      "tle": 4903,
      "timer": 4904,
      "ulian": 4905,
      "vcr": 4906,
      "wards": 4907,
      "xr": 4908,
      "yp": 4909,
      "}\\": 4910,
      "seconds": 4911,
      "standard": 4912,
      "Ġai": 4913,
      "dered": 4914,
      "alog": 4915,
      "Ġnet": 4916,
      "utc": 4917,
      "uted": 4918,
      "Ġdyld": 4919,
      "cope": 4920,
      "()):": 4921,
      "Ġdefinit": 4922,
      "Ġ\"_": 4923,
      "ulated": 4924,
      "Ġstore": 4925,
      "Ġnotice": 4926,
      "direct": 4927,
      "verting": 4928,
      "verbose": 4929,
      "Ġ19": 4930,
      "Ġdelay": 4931,
      "Ġdetect": 4932,
      "Ġmagic": 4933,
      "ĠAuthor": 4934,
      "\").": 4935,
      "outer": 4936,
      "outfile": 4937,
      "datawritten": 4938,
      "prev": 4939,
      "orking": 4940,
      "compat": 4941,
      "compname": 4942,
      "Ġpredicate": 4943,
      "curity": 4944,
      "emon": 4945,
      "ĠHTML": 4946,
      "Ġentity": 4947,
      "Ġtokens": 4948,
      "Decl": 4949,
      "box": 4950,
      "Ġzone": 4951,
      "Stat": 4952,
      "Start": 4953,
      "sendfile": 4954,
      "Ġcounts": 4955,
      "Ġpatterns": 4956,
      "Ġdebugging": 4957,
      "Ġpossibly": 4958,
      "callbacks": 4959,
      "category": 4960,
      "Ġrequire": 4961,
      "RIPT": 4962,
      "CONTENT": 4963,
      "ACK": 4964,
      "Ġ1024": 4965,
      "ragma": 4966,
      "Dict": 4967,
      "Char": 4968,
      "SYSTEM": 4969,
      "SystemExit": 4970,
      "control": 4971,
      "quences": 4972,
      "undefined": 4973,
      "Ġdidn": 4974,
      "ĠSyntaxError": 4975,
      "Ġsigma": 4976,
      "Entity": 4977,
      "Ġdecorator": 4978,
      "Ġsuitable": 4979,
      "(-": 4980,
      "*'": 4981,
      ":],": 4982,
      "CS": 4983,
      "ENT": 4984,
      "Function": 4985,
      "MIME": 4986,
      "MALL": 4987,
      "Qu": 4988,
      "UE": 4989,
      "WS": 4990,
      "aix": 4991,
      "frozen": 4992,
      "hard": 4993,
      "iate": 4994,
      "random": 4995,
      "rupt": 4996,
      "Ġ----------------": 4997,
      "Ġvery": 4998,
      "sequent": 4999,
      "recursive": 5000,
      "requen": 5001,
      "leg": 5002,
      "decoded": 5003,
      "delim": 5004,
      "hent": 5005,
      "Ġnc": 5006,
      "Ġboolean": 5007,
      "any": 5008,
      "Ġinside": 5009,
      "Ġder": 5010,
      "unix": 5011,
      "unused": 5012,
      "chmod": 5013,
      "Ġcost": 5014,
      "Ġthree": 5015,
      "terminator": 5016,
      "filelist": 5017,
      "abet": 5018,
      "(':": 5019,
      "ĠSu": 5020,
      "setitem": 5021,
      "Ġ[-": 5022,
      "ĠClass": 5023,
      "ĠCreate": 5024,
      "Remove": 5025,
      "tered": 5026,
      "outError": 5027,
      "ĠPO": 5028,
      "ĠPY": 5029,
      "Ġenable": 5030,
      "Ġlinesep": 5031,
      "Ġsetattr": 5032,
      "Ġ2822": 5033,
      "parame": 5034,
      "shot": 5035,
      "curNode": 5036,
      "Ġless": 5037,
      "ĠRPM": 5038,
      "ĠBe": 5039,
      "Ġclassmethod": 5040,
      "Ġsubset": 5041,
      "iven": 5042,
      "pilog": 5043,
      "Ġcapt": 5044,
      "Ġcause": 5045,
      "Ġoutputs": 5046,
      "quoted": 5047,
      "Ġdisable": 5048,
      "Ġblocksize": 5049,
      "Ġpermission": 5050,
      "Ġextract": 5051,
      "Ġconfigure": 5052,
      "Resol": 5053,
      "dbm": 5054,
      "Ġwaiting": 5055,
      "Ġchanges": 5056,
      "veni": 5057,
      "POINTER": 5058,
      "Encode": 5059,
      "txt": 5060,
      "5678": 5061,
      "OSX": 5062,
      "sigma": 5063,
      "Ġquery": 5064,
      "PoolExecutor": 5065,
      "GenericAlias": 5066,
      "hentic": 5067,
      "48": 5068,
      "512": 5069,
      "BQ": 5070,
      "YPE": 5071,
      "ZMA": 5072,
      "_)": 5073,
      "await": 5074,
      "cla": 5075,
      "don": 5076,
      "dup": 5077,
      "pl": 5078,
      "sum": 5079,
      "vant": 5080,
      "ĠHANDLE": 5081,
      "seen": 5082,
      "Ġtim": 5083,
      "Ġcum": 5084,
      "alias": 5085,
      "Ġplist": 5086,
      "Ġpure": 5087,
      "Ġpragma": 5088,
      "Ġns": 5089,
      "Ġbp": 5090,
      "Ġbig": 5091,
      "cte": 5092,
      "unexpected": 5093,
      "Ġcome": 5094,
      "Ġhad": 5095,
      "asic": 5096,
      "Ġconsume": 5097,
      "operator": 5098,
      "Ġuuid": 5099,
      "ases": 5100,
      "idom": 5101,
      "Ġdead": 5102,
      "ĠFind": 5103,
      "ĠFirst": 5104,
      "ĠAg": 5105,
      "Ġgre": 5106,
      "Ġguarante": 5107,
      "elnet": 5108,
      "Ġosname": 5109,
      "reams": 5110,
      "RES": 5111,
      "ĠEVENT": 5112,
      "Ġnewer": 5113,
      "tracker": 5114,
      "starts": 5115,
      "functools": 5116,
      "Ġloggers": 5117,
      "notify": 5118,
      "rencode": 5119,
      "Ġlabel": 5120,
      "Ġusername": 5121,
      "UNIX": 5122,
      "Ġfinished": 5123,
      "ĠExtension": 5124,
      "Ġperform": 5125,
      "Ġrequests": 5126,
      "BUTE": 5127,
      "Ġbuffering": 5128,
      "ĊĠĠĠĠĠĠĠĠĠĠĠĠĠĠĠĠĠĠĠĠĠĠĠĠĠĠĠĠĠĠĠĠĠĠĠĠĠĠĠĠĠĠĠ": 5129,
      "description": 5130,
      "outputs": 5131,
      "Ġmeaning": 5132,
      "Ġscripts": 5133,
      "Encoder": 5134,
      "multipart": 5135,
      "MOD": 5136,
      "breaks": 5137,
      "OSError": 5138,
      "ĠSome": 5139,
      "phabet": 5140,
      "Prefix": 5141,
      "Bytes": 5142,
      "Ġunique": 5143,
      "ĠStatistics": 5144,
      "ĠResource": 5145,
      "Ġmakes": 5146,
      "TRIBUTE": 5147,
      "pilogue": 5148,
      "\"],": 5149,
      ")')": 5150,
      "API": 5151,
      "BAL": 5152,
      "BIT": 5153,
      "Call": 5154,
      "DY": 5155,
      "IAL": 5156,
      "LTER": 5157,
      "Non": 5158,
      "OB": 5159,
      "SK": 5160,
      "SITE": 5161,
      "Summary": 5162,
      "[(": 5163,
      "]\\": 5164,
      "afe": 5165,
      "bp": 5166,
      "cab": 5167,
      "gz": 5168,
      "qname": 5169,
      "title": 5170,
      "wrapped": 5171,
      "zA": 5172,
      "Ġutf": 5173,
      "Ġquiet": 5174,
      "inherit": 5175,
      "Ġtab": 5176,
      "lection": 5177,
      "Ġfree": 5178,
      "Ġct": 5179,
      "alle": 5180,
      "Ġrepeat": 5181,
      "ited": 5182,
      "itial": 5183,
      "Ġpseudo": 5184,
      "Ġnone": 5185,
      "Ġinner": 5186,
      "Ġws": 5187,
      "Ġwsgi": 5188,
      "Ġwalk": 5189,
      "unct": 5190,
      "chain": 5191,
      "directories": 5192,
      "veral": 5193,
      "rivate": 5194,
      "isect": 5195,
      "('_": 5196,
      "Ġdetermine": 5197,
      "(\"'": 5198,
      "ĠField": 5199,
      "Ġprocessed": 5200,
      "Ġgen": 5201,
      "ĠPATH": 5202,
      "ĠPSF": 5203,
      "quit": 5204,
      "prop": 5205,
      "proactor": 5206,
      "ĠMay": 5207,
      "Ġinstant": 5208,
      "Ġargparse": 5209,
      "ĊĠĠĠĠĠĠĠĠĠĠĠĠĠĠĠĠĠĠĠĠĠĠĠĠĠĠĠĠĠĠĠĠĠĠĠĠĠ": 5210,
      "filenames": 5211,
      "imate": 5212,
      "Ġwhence": 5213,
      "Input": 5214,
      "Install": 5215,
      "Ġcau": 5216,
      "FILTER": 5217,
      "Ġbuilder": 5218,
      "Ġservices": 5219,
      "platbase": 5220,
      "ĠGNU": 5221,
      "Ġtokenizer": 5222,
      "Ġcolon": 5223,
      "IOWrapper": 5224,
      "LOBAL": 5225,
      "FileError": 5226,
      "ĠDecimal": 5227,
      "issue": 5228,
      "Ġbufsize": 5229,
      "Ġlinker": 5230,
      "rpc": 5231,
      "Ġfeatures": 5232,
      "Ġpriority": 5233,
      "Ġmemoryview": 5234,
      "ĠChar": 5235,
      "Ġsymbol": 5236,
      "[^\\": 5237,
      "ĠYou": 5238,
      "Ġdays": 5239,
      "Ġbeginning": 5240,
      "COMPLETED": 5241,
      "semlock": 5242,
      "Ġsimply": 5243,
      "ĠLicensed": 5244,
      "*.": 5245,
      ".\\": 5246,
      "08": 5247,
      "28": 5248,
      "68": 5249,
      "::": 5250,
      "CFLAG": 5251,
      "CFLAGS": 5252,
      "Down": 5253,
      "Dlg": 5254,
      "GTH": 5255,
      "Import": 5256,
      "IMP": 5257,
      "Map": 5258,
      "Policy": 5259,
      "aifc": 5260,
      "eval": 5261,
      "fatal": 5262,
      "ices": 5263,
      "lnum": 5264,
      "pr": 5265,
      "plit": 5266,
      "qx": 5267,
      "zy": 5268,
      "Ġve": 5269,
      "Ġ\\\\": 5270,
      "inels": 5271,
      "regex": 5272,
      "leep": 5273,
      "device": 5274,
      "Ġrecv": 5275,
      "Ġrecognized": 5276,
      "Ġretrie": 5277,
      "urrent": 5278,
      "Ġoctet": 5279,
      "Ġ'\"": 5280,
      "lice": 5281,
      "edError": 5282,
      "Ġ\"--": 5283,
      "escaped": 5284,
      "__']": 5285,
      "__\":": 5286,
      "ĠThread": 5287,
      "Ġcookie": 5288,
      "Ġusu": 5289,
      "services": 5290,
      "Ġascii": 5291,
      "codes": 5292,
      "iterencode": 5293,
      "ĠCGI": 5294,
      "ĠAF": 5295,
      "ĠAr": 5296,
      "cies": 5297,
      "parsing": 5298,
      "Ġprepend": 5299,
      "ĠWSGI": 5300,
      "Ġcompressed": 5301,
      "licen": 5302,
      "tact": 5303,
      "Ġsubclasses": 5304,
      "framesize": 5305,
      "Ġappro": 5306,
      "quires": 5307,
      "variable": 5308,
      "Ġupdated": 5309,
      "PEAT": 5310,
      "Proxy": 5311,
      "reement": 5312,
      "translate": 5313,
      "linker": 5314,
      "varsall": 5315,
      "Stack": 5316,
      "below": 5317,
      "Sequence": 5318,
      "Ġcached": 5319,
      "Ġ\"\")": 5320,
      "Ġ60": 5321,
      "SOURCE": 5322,
      "spawning": 5323,
      "Ġmarker": 5324,
      "transform": 5325,
      "finalizer": 5326,
      "initialize": 5327,
      "Ġgood": 5328,
      "Ġescaped": 5329,
      "Ġmultipart": 5330,
      "CODES": 5331,
      "Ġsentinel": 5332,
      "ĠParser": 5333,
      "ĠBuffered": 5334,
      "ĠStringIO": 5335,
      "DecodeError": 5336,
      "Ġlegacy": 5337,
      "MoreData": 5338,
      "(',": 5339,
      ");": 5340,
      "/'": 5341,
      ":\"": 5342,
      "=[": 5343,
      "AI": 5344,
      "AME": 5345,
      "ALE": 5346,
      "Argument": 5347,
      "DLL": 5348,
      "LY": 5349,
      "LITERAL": 5350,
      "OK": 5351,
      "PL": 5352,
      "RST": 5353,
      "TZ": 5354,
      "UMENT": 5355,
      "eto": 5356,
      "gcc": 5357,
      "hi": 5358,
      "pad": 5359,
      "infile": 5360,
      "ret": 5361,
      "attribute": 5362,
      "Ġclosing": 5363,
      "alpha": 5364,
      "Ġest": 5365,
      "Ġintern": 5366,
      "Ġwor": 5367,
      "Ġwrapp": 5368,
      "Ġmix": 5369,
      "otonic": 5370,
      "unds": 5371,
      "ptto": 5372,
      "lake": 5373,
      "Ġ\"(": 5374,
      "ulative": 5375,
      "__'": 5376,
      "digits": 5377,
      "getvalue": 5378,
      "getnode": 5379,
      "Ġseq": 5380,
      "Ġsequences": 5381,
      "Ġseveral": 5382,
      "Ġhack": 5383,
      "Ġhour": 5384,
      "('--": 5385,
      "ĠSIG": 5386,
      "ĠSince": 5387,
      "Ġdeal": 5388,
      "Ġdepth": 5389,
      "setattr": 5390,
      "Ġmetrics": 5391,
      "const": 5392,
      "ĠCan": 5393,
      "ĠFound": 5394,
      "ĠAUDIO": 5395,
      "Ġprofile": 5396,
      "tell": 5397,
      "Ġchat": 5398,
      "Ġchannels": 5399,
      "Ġrule": 5400,
      "Ġenco": 5401,
      "Ġenough": 5402,
      "importlib": 5403,
      "Ġdocs": 5404,
      "Ġprev": 5405,
      "curdir": 5406,
      "vides": 5407,
      "ĊĠĠĠĠĠĠĠĠĠĠĠĠĠĠĠĠĠĠĠĠĠĠĠĠĠĠĠĠĠĠĠĠĠĠĠĠĠĠ": 5408,
      "train": 5409,
      "'].": 5410,
      "Ġ30": 5411,
      "Instruction": 5412,
      "access": 5413,
      "username": 5414,
      "ĠExpat": 5415,
      "LOAD": 5416,
      "Ġmodname": 5417,
      "lashes": 5418,
      "Ġ50": 5419,
      "Ġexpan": 5420,
      "ĠSequence": 5421,
      "Tests": 5422,
      "makefile": 5423,
      "EXT": 5424,
      "compression": 5425,
      "Ġseparate": 5426,
      "Ġmarkers": 5427,
      "hostname": 5428,
      "QUEST": 5429,
      "Ġoccurs": 5430,
      "Ġrout": 5431,
      "Ġcompatible": 5432,
      "Template": 5433,
      "LIBR": 5434,
      "Ġidentifier": 5435,
      "Ġsignature": 5436,
      "ContextManager": 5437,
      "LENGTH": 5438,
      "Ġindicates": 5439,
      "MBackend": 5440,
      "Ġcopied": 5441,
      "XMLRPCServer": 5442,
      "Implements": 5443,
      "Ġoptimization": 5444,
      "multifile": 5445,
      "assemble": 5446,
      "ĠShould": 5447,
      "requency": 5448,
      "pttos": 5449,
      ")}": 5450,
      ":\\": 5451,
      "ISH": 5452,
      "MULT": 5453,
      "PLA": 5454,
      "ValueError": 5455,
      "af": 5456,
      "ainst": 5457,
      "blank": 5458,
      "custom": 5459,
      "fli": 5460,
      "fill": 5461,
      "glob": 5462,
      "iwith": 5463,
      "mc": 5464,
      "olic": 5465,
      "ral": 5466,
      "sor": 5467,
      "same": 5468,
      "water": 5469,
      "}.": 5470,
      "}\".": 5471,
      "let": 5472,
      "decess": 5473,
      "members": 5474,
      "ĠĠĠĠĠĠĠĠĠĠĠĠ": 5475,
      "itize": 5476,
      "Ġeas": 5477,
      "location": 5478,
      "()\")": 5479,
      "rain": 5480,
      "label": 5481,
      "__')": 5482,
      "__'):": 5483,
      "Ġexe": 5484,
      "getpid": 5485,
      "ĠTO": 5486,
      "Ġcomb": 5487,
      "isual": 5488,
      "Err": 5489,
      "Ġ14": 5490,
      "ĠSMALL": 5491,
      "Ġdenominator": 5492,
      "Ġ=====": 5493,
      "Ġmajor": 5494,
      "Ġ[('": 5495,
      "Ġalpha": 5496,
      "ĠPi": 5497,
      "ository": 5498,
      "Ġonerror": 5499,
      "reamble": 5500,
      "prepare": 5501,
      "profile": 5502,
      "Ġpathlib": 5503,
      "INST": 5504,
      "Ġdoing": 5505,
      "ĠWh": 5506,
      "ĠWITH": 5507,
      "Ġcanon": 5508,
      "cursion": 5509,
      "ONG": 5510,
      "ĠLL": 5511,
      "ĠLET": 5512,
      "ATTER": 5513,
      "ATTRIBUTE": 5514,
      "STD": 5515,
      "'],": 5516,
      "repository": 5517,
      "Ġfunctional": 5518,
      "Ġsubsequent": 5519,
      "Ġcodecs": 5520,
      "Ġfilesystem": 5521,
      "tributor": 5522,
      "winerror": 5523,
      "Ġappended": 5524,
      "ĠHel": 5525,
      "omic": 5526,
      "Ġvc": 5527,
      "Ġformatter": 5528,
      "ĠIncremental": 5529,
      "prefixes": 5530,
      "stdlib": 5531,
      "Ġchecks": 5532,
      "ĠExecut": 5533,
      "ĠContributor": 5534,
      "Ġblocking": 5535,
      "Ġprotocols": 5536,
      "250": 5537,
      "chunksize": 5538,
      "display": 5539,
      "Ġ\"\",": 5540,
      "THO": 5541,
      "Ġquotes": 5542,
      "Ġconnections": 5543,
      "Ġindents": 5544,
      "Ġhashlib": 5545,
      "caps": 5546,
      "ropic": 5547,
      "Ġagainst": 5548,
      "Pick": 5549,
      "WORK": 5550,
      "TemporaryDirectory": 5551,
      "BINARY": 5552,
      "Ġdepends": 5553,
      "SMTPUTF": 5554,
      "ĠNeedMoreData": 5555,
      "smtp": 5556,
      "ĠAgreement": 5557,
      "ĠStatisticsError": 5558,
      "LIBRARY": 5559,
      "ISHED": 5560,
      "flict": 5561,
      "iwithsysroot": 5562,
      "ĠLETTER": 5563,
      "ATTERN": 5564,
      "(['": 5565,
      ")\"\"\"": 5566,
      "/*": 5567,
      "79": 5568,
      "=''": 5569,
      "Action": 5570,
      "AttributeError": 5571,
      "Cal": 5572,
      "Code": 5573,
      "CData": 5574,
      "Line": 5575,
      "PC": 5576,
      "SRE": 5577,
      "authkey": 5578,
      "ba": 5579,
      "bos": 5580,
      "bind": 5581,
      "ground": 5582,
      "have": 5583,
      "lr": 5584,
      "pow": 5585,
      "rad": 5586,
      "sre": 5587,
      "surrogate": 5588,
      "zQ": 5589,
      "section": 5590,
      "inte": 5591,
      "orage": 5592,
      "depth": 5593,
      "mean": 5594,
      "memory": 5595,
      "Ġfragment": 5596,
      "Ġcfile": 5597,
      "ari": 5598,
      "arations": 5599,
      "enable": 5600,
      "engine": 5601,
      "Ġomitted": 5602,
      "Ġsl": 5603,
      "Ġspe": 5604,
      "Ġsql": 5605,
      "Ġ'':": 5606,
      "ionError": 5607,
      "Ġear": 5608,
      "ane": 5609,
      "anitize": 5610,
      "Ġincomplete": 5611,
      "Ġinstruction": 5612,
      "otent": 5613,
      "cos": 5614,
      "()]": 5615,
      "lave": 5616,
      "ully": 5617,
      "Ġexten": 5618,
      "ising": 5619,
      "ride": 5620,
      "Ġserial": 5621,
      "abbr": 5622,
      "istent": 5623,
      "macro": 5624,
      "ĠIP": 5625,
      "ĠSoftware": 5626,
      "Ġdepending": 5627,
      "setstate": 5628,
      "ĠFOR": 5629,
      "ĠAfter": 5630,
      "ĠALL": 5631,
      "Ġrpm": 5632,
      "produ": 5633,
      "Ġaren": 5634,
      "ĠOpen": 5635,
      "times": 5636,
      "ĠMult": 5637,
      "ĠMatches": 5638,
      "ĠEnt": 5639,
      "inity": 5640,
      "Ġprece": 5641,
      "Ġoutside": 5642,
      "ĠLO": 5643,
      "METHO": 5644,
      "atcher": 5645,
      "ness": 5646,
      "['__": 5647,
      "cluding": 5648,
      "quired": 5649,
      "ĠGRE": 5650,
      "Ġentities": 5651,
      "Ġpositive": 5652,
      "Decoder": 5653,
      "Load": 5654,
      "loads": 5655,
      "debugging": 5656,
      "Ġbackward": 5657,
      "ĠStart": 5658,
      "MAC": 5659,
      "Ġexpand": 5660,
      "Ġrequested": 5661,
      "DOT": 5662,
      "Ġqs": 5663,
      "nowait": 5664,
      "Ġstructure": 5665,
      "expr": 5666,
      "expat": 5667,
      "export": 5668,
      "Ġprogress": 5669,
      "FFFF": 5670,
      "Ġlooking": 5671,
      "Ġrepresents": 5672,
      "multiprocessing": 5673,
      "ifiers": 5674,
      "nsitive": 5675,
      "finish": 5676,
      "Ġreduce": 5677,
      "Ġprior": 5678,
      "HOST": 5679,
      "SimpleCData": 5680,
      "Runner": 5681,
      "Suite": 5682,
      "Ġsuccessful": 5683,
      "randbits": 5684,
      "Byte": 5685,
      "xbs": 5686,
      "Caches": 5687,
      "ĠTraceback": 5688,
      "Ġattempt": 5689,
      "sencode": 5690,
      "Ġhandled": 5691,
      "normcase": 5692,
      "CEPTION": 5693,
      "Struct": 5694,
      "Ġtaken": 5695,
      "ĠSystemExit": 5696,
      "12345678": 5697,
      "venience": 5698,
      "BQzQ": 5699,
      "etopt": 5700,
      "METHOD": 5701,
      "'ve": 5702,
      "39": 5703,
      ">\",": 5704,
      "At": 5705,
      "CUMENT": 5706,
      "FUT": 5707,
      "Failed": 5708,
      "GLOBAL": 5709,
      "HT": 5710,
      "IST": 5711,
      "On": 5712,
      "Pattern": 5713,
      "`.": 5714,
      "bang": 5715,
      "finity": 5716,
      "ny": 5717,
      "sv": 5718,
      "scape": 5719,
      "wind": 5720,
      "Ġ._": 5721,
      "Ġutcoff": 5722,
      "star": 5723,
      "delete": 5724,
      "decimal": 5725,
      "arry": 5726,
      "Ġrea": 5727,
      "ittle": 5728,
      "cell": 5729,
      "Ġsn": 5730,
      "Ġskipped": 5731,
      "Ġnframes": 5732,
      "located": 5733,
      "Ġmut": 5734,
      "Ġmtime": 5735,
      "iles": 5736,
      "unded": 5737,
      "unicode": 5738,
      "gether": 5739,
      "Ġtogether": 5740,
      "__]": 5741,
      "Ġbeta": 5742,
      "Ġhunk": 5743,
      "###": 5744,
      "('.": 5745,
      "Ġasynchronous": 5746,
      "ĠSE": 5747,
      "Ġdecoding": 5748,
      "ĠFunction": 5749,
      "Ġdigits": 5750,
      "ĠAND": 5751,
      "ĠArgument": 5752,
      "ancell": 5753,
      "appop": 5754,
      "osx": 5755,
      "ells": 5756,
      "Ġwhose": 5757,
      "owever": 5758,
      "calendar": 5759,
      "parsed": 5760,
      "timestamp": 5761,
      "vide": 5762,
      "using": 5763,
      "ĠLib": 5764,
      "more": 5765,
      "iflags": 5766,
      "report": 5767,
      "until": 5768,
      "poss": 5769,
      "Ġends": 5770,
      "Ġstarted": 5771,
      "Convert": 5772,
      "Ġcap": 5773,
      "Ġcaps": 5774,
      "Ġcalendar": 5775,
      "ARK": 5776,
      "ARGET": 5777,
      "Ġones": 5778,
      "Ġaccount": 5779,
      "Ġformatted": 5780,
      "riple": 5781,
      "ĠĠĠĠĠĠĠĠĠĠĠĠĠĠĠĠĠĠ": 5782,
      "=\"%": 5783,
      "counts": 5784,
      "IOError": 5785,
      "LOG": 5786,
      "Ġhandles": 5787,
      "Ġexecution": 5788,
      "Ġpercent": 5789,
      "ĠSession": 5790,
      "OFT": 5791,
      "Ġcompleted": 5792,
      "modified": 5793,
      "ĠDistutilsFileError": 5794,
      "Semaphore": 5795,
      "Names": 5796,
      "messages": 5797,
      "Ġsymlink": 5798,
      "what": 5799,
      "nodes": 5800,
      "ĠsystemId": 5801,
      "ATED": 5802,
      "execute": 5803,
      "Ġincludes": 5804,
      "Ġdifference": 5805,
      "tzpath": 5806,
      "Unix": 5807,
      "Ġnumerator": 5808,
      "Ġintegers": 5809,
      "Dictionary": 5810,
      "initializer": 5811,
      "Channel": 5812,
      "Ġ2001": 5813,
      "discard": 5814,
      "ront": 5815,
      "Ġaccepted": 5816,
      "wraps": 5817,
      "Ġreplaced": 5818,
      "Ġwinner": 5819,
      "HEAD": 5820,
      "Ġmachinery": 5821,
      "Ġrows": 5822,
      "Ġsymbolic": 5823,
      "Ġresolved": 5824,
      "Ġpopulation": 5825,
      "TIMEOUT": 5826,
      "Ġconnected": 5827,
      "Ġindicating": 5828,
      "Address": 5829,
      "Ġproblem": 5830,
      "Helper": 5831,
      "Ġhook": 5832,
      "Ġyielded": 5833,
      "Ġaiforge": 5834,
      "allel": 5835,
      "ĠCharset": 5836,
      "ĠFoundation": 5837,
      "ĠPipe": 5838,
      "surrogateescape": 5839,
      "46": 5840,
      "81": 5841,
      "=':": 5842,
      "?'": 5843,
      "Al": 5844,
      "BLOCK": 5845,
      "CGI": 5846,
      "CASE": 5847,
      "CANCELLED": 5848,
      "FD": 5849,
      "Print": 5850,
      "[,": 5851,
      "false": 5852,
      "fail": 5853,
      "hdr": 5854,
      "ilf": 5855,
      "ired": 5856,
      "mask": 5857,
      "rm": 5858,
      "Ġke": 5859,
      "registered": 5860,
      "stit": 5861,
      "lfast": 5862,
      "Ġcv": 5863,
      "Ġol": 5864,
      "Ġnt": 5865,
      "Ġbind": 5866,
      "Ġ':'": 5867,
      "ingIOError": 5868,
      "Ġdrop": 5869,
      "unc": 5870,
      "unit": 5871,
      "unified": 5872,
      "covery": 5873,
      "edi": 5874,
      "ilers": 5875,
      "ĠSDK": 5876,
      "Ġdecoder": 5877,
      ")),": 5878,
      "toff": 5879,
      "ĠCall": 5880,
      "Ġarm": 5881,
      "Ġnest": 5882,
      "prepend": 5883,
      "ĠDO": 5884,
      "REPEAT": 5885,
      "shift": 5886,
      "Ġprepare": 5887,
      "Ġcompare": 5888,
      "Ġkeywords": 5889,
      "ĠLZMA": 5890,
      "lockingIOError": 5891,
      "Ġprinted": 5892,
      "DEV": 5893,
      "Ġpasswd": 5894,
      "piKey": 5895,
      "startpos": 5896,
      "charbuffer": 5897,
      "worker": 5898,
      "Connection": 5899,
      "variant": 5900,
      "PED": 5901,
      "amma": 5902,
      "Local": 5903,
      "UNK": 5904,
      "aps": 5905,
      "links": 5906,
      "CTYPE": 5907,
      "([\"": 5908,
      "Ġfinder": 5909,
      "Ġcreates": 5910,
      "Ġnodes": 5911,
      "zipFile": 5912,
      "Ġminidom": 5913,
      "Ġssldata": 5914,
      "Ġhtml": 5915,
      "STRU": 5916,
      "SERVER": 5917,
      "ĠInterrupt": 5918,
      "ailfast": 5919,
      "Ġhttps": 5920,
      "LOCALE": 5921,
      "Ġcompresslevel": 5922,
      "Ġalive": 5923,
      "Ġ'<%": 5924,
      "Doc": 5925,
      "namespaces": 5926,
      "mkpath": 5927,
      "dumps": 5928,
      "Ġresolve": 5929,
      "Ġsmtp": 5930,
      "Ġdeclaration": 5931,
      "---------------+": 5932,
      "ĠDEBUG": 5933,
      "Ġmaking": 5934,
      "reshold": 5935,
      "normalize": 5936,
      "Overlapped": 5937,
      "Ġproblems": 5938,
      "Ġlexer": 5939,
      "Ġdeleted": 5940,
      "Multipart": 5941,
      "ĠSMTPChannel": 5942,
      "Ġwhole": 5943,
      "ĠANY": 5944,
      "EXEC": 5945,
      "vcrt": 5946,
      "Ġrules": 5947,
      "PLACE": 5948,
      "Ġcanonical": 5949,
      "Ġspeed": 5950,
      "ilfrom": 5951,
      "*\\": 5952,
      "42": 5953,
      "59": 5954,
      "72": 5955,
      ">\")": 5956,
      "CKE": 5957,
      "CancelledError": 5958,
      "Des": 5959,
      "Fail": 5960,
      "IFI": 5961,
      "NONE": 5962,
      "PPED": 5963,
      "RT": 5964,
      "TMP": 5965,
      "Windows": 5966,
      "]),": 5967,
      "]\"),": 5968,
      "apre": 5969,
      "catch": 5970,
      "gnore": 5971,
      "ios": 5972,
      "ique": 5973,
      "implement": 5974,
      "mut": 5975,
      "mtoff": 5976,
      "np": 5977,
      "nan": 5978,
      "nbytes": 5979,
      "oi": 5980,
      "public": 5981,
      "qs": 5982,
      "yield": 5983,
      "ĠKe": 5984,
      "session": 5985,
      "incoming": 5986,
      "resume": 5987,
      "related": 5988,
      "Ġtabs": 5989,
      "origin": 5990,
      "Ġauthor": 5991,
      "Ġ=>": 5992,
      "detach": 5993,
      "Ġfrozen": 5994,
      "arsh": 5995,
      "ength": 5996,
      "Ġreversed": 5997,
      "itch": 5998,
      "itect": 5999,
      "Ġpotent": 6000,
      "Ġinfile": 6001,
      "roy": 6002,
      "lopen": 6003,
      "Ġiso": 6004,
      "cooked": 6005,
      "Ġdefines": 6006,
      "Ġ(((": 6007,
      "lambda": 6008,
      "ulates": 6009,
      "getstate": 6010,
      "ĠTran": 6011,
      "ĠTask": 6012,
      "Ġthing": 6013,
      "serving": 6014,
      "Ġorigin": 6015,
      "made": 6016,
      "ĠSub": 6017,
      "ĠServer": 6018,
      "ĠFIL": 6019,
      "ĠAnd": 6020,
      "Ġgcc": 6021,
      "Ġencoder": 6022,
      "Ġtrying": 6023,
      "Ġgettext": 6024,
      "igure": 6025,
      "backlog": 6026,
      "Ġpretty": 6027,
      "ipes": 6028,
      "ĠWAR": 6029,
      "Ġcandidate": 6030,
      "Ġtimezone": 6031,
      "Ġargval": 6032,
      "Ġln": 6033,
      "ĠUsed": 6034,
      "ĠRUN": 6035,
      "traces": 6036,
      "Ġaddresses": 6037,
      "imal": 6038,
      "poses": 6039,
      "arger": 6040,
      "character": 6041,
      "Ġending": 6042,
      "notifier": 6043,
      "Ġdistribut": 6044,
      "SEEK": 6045,
      "Ġapplications": 6046,
      "ĠHandle": 6047,
      "Ġencodings": 6048,
      "ARG": 6049,
      "Ġformats": 6050,
      "ĠInst": 6051,
      "Ġopening": 6052,
      "Ġrepl": 6053,
      "Ġ{})": 6054,
      "limits": 6055,
      "TEN": 6056,
      "Ġ48": 6057,
      "Ġinitargs": 6058,
      "Ġservers": 6059,
      "Ġ'-'": 6060,
      "KEN": 6061,
      "slation": 6062,
      "Ġvariance": 6063,
      "ĠWeak": 6064,
      "Ġpie": 6065,
      "Ġinstaller": 6066,
      "Ġmanage": 6067,
      "ĠJan": 6068,
      "threads": 6069,
      "EXCEPTION": 6070,
      "tuples": 6071,
      "Ġlikely": 6072,
      "Ġsslcontext": 6073,
      "impl": 6074,
      "tionRequest": 6075,
      "firstweekday": 6076,
      "bufsize": 6077,
      "Ġalign": 6078,
      "egg": 6079,
      "Ġowner": 6080,
      "Default": 6081,
      "Support": 6082,
      "Ġsymbols": 6083,
      "Ġbehaviour": 6084,
      "Calendar": 6085,
      "ĠGenerator": 6086,
      "Ġchoice": 6087,
      "________________": 6088,
      "defects": 6089,
      "Ġprovider": 6090,
      "flowError": 6091,
      "Ġprofiler": 6092,
      "maintype": 6093,
      "dotted": 6094,
      "monotonic": 6095,
      "Weak": 6096,
      "unctuation": 6097,
      "decessors": 6098,
      "Ġfunctionality": 6099,
      "=''):": 6100,
      "bosity": 6101,
      "Ġextended": 6102,
      "ĠGREEK": 6103,
      "ĠInterruptedError": 6104,
      "apreplace": 6105,
      "cookedq": 6106,
      "ĠFILTER": 6107,
      ",-": 6108,
      "110": 6109,
      ":\")": 6110,
      "=(": 6111,
      "BS": 6112,
      "COR": 6113,
      "Fatal": 6114,
      "IES": 6115,
      "LP": 6116,
      "TD": 6117,
      "Using": 6118,
      "UBLE": 6119,
      "XT": 6120,
      "]):": 6121,
      "ared": 6122,
      "bb": 6123,
      "fold": 6124,
      "fsencode": 6125,
      "high": 6126,
      "hqx": 6127,
      "klass": 6128,
      "kind": 6129,
      "margin": 6130,
      "sb": 6131,
      "xc": 6132,
      "xe": 6133,
      "second": 6134,
      "inish": 6135,
      "requires": 6136,
      "Ġts": 6137,
      "oraise": 6138,
      "Ġfit": 6139,
      "Ġcm": 6140,
      "Ġcp": 6141,
      "Ġclock": 6142,
      "Ġbar": 6143,
      "Ġefficient": 6144,
      "','": 6145,
      "Ġstreams": 6146,
      "verify": 6147,
      "Ġsear": 6148,
      "Ġhandshake": 6149,
      "Ġhaving": 6150,
      "abiflags": 6151,
      "opri": 6152,
      "Ġ13": 6153,
      "Ġ%(": 6154,
      "ffers": 6155,
      "Ġimportant": 6156,
      "ĠCancelledError": 6157,
      "ĠCRLF": 6158,
      "listdir": 6159,
      "ĠACTION": 6160,
      "Ġalt": 6161,
      "Ġgar": 6162,
      "Ġgzip": 6163,
      "bugs": 6164,
      "Ġchr": 6165,
      "trl": 6166,
      "Ġfromlist": 6167,
      "processes": 6168,
      "Ġhelper": 6169,
      "Ġdoctype": 6170,
      "ĠEmpty": 6171,
      "nolog": 6172,
      "writeln": 6173,
      "Ġlittle": 6174,
      "Ġlarger": 6175,
      "suite": 6176,
      "STAT": 6177,
      "tract": 6178,
      "Ġ('__": 6179,
      "ORTED": 6180,
      "Ġcurdir": 6181,
      "Ġmaxlevels": 6182,
      "builder": 6183,
      "Ġintro": 6184,
      "Ġable": 6185,
      "msgout": 6186,
      "opened": 6187,
      "newline": 6188,
      "Ġbuilds": 6189,
      "ĠReal": 6190,
      "AGIC": 6191,
      "Ġtranslate": 6192,
      "Profile": 6193,
      "contextmanager": 6194,
      "Ġbackwards": 6195,
      "apshot": 6196,
      "tempdir": 6197,
      "Ġzlib": 6198,
      "angle": 6199,
      "Ġlocalname": 6200,
      "SCRIPT": 6201,
      "partition": 6202,
      "created": 6203,
      "before": 6204,
      "Ġignor": 6205,
      "completion": 6206,
      "NAMESPACE": 6207,
      "Ġinterfaces": 6208,
      "Ġminor": 6209,
      "Ġexitcode": 6210,
      "cygwin": 6211,
      "Buffered": 6212,
      "Ġpydoc": 6213,
      "Ġdbm": 6214,
      "Ġgoing": 6215,
      "LOCAL": 6216,
      "ĠFileNotFoundError": 6217,
      "ĠNOTE": 6218,
      "contin": 6219,
      "Ġview": 6220,
      "Ġbrowsers": 6221,
      "Ġcomments": 6222,
      "ĠOnly": 6223,
      "audit": 6224,
      "Ġfaster": 6225,
      "Ġbreakpoints": 6226,
      "TemporaryFile": 6227,
      "Implementation": 6228,
      "Ġduplicate": 6229,
      "machinery": 6230,
      "Transfer": 6231,
      "Model": 6232,
      "SUFFIXES": 6233,
      "GENER": 6234,
      "ĠNormalDist": 6235,
      "hentication": 6236,
      "Ġguaranteed": 6237,
      "Ġwrapping": 6238,
      "HEADER": 6239,
      "\"(?": 6240,
      ")',": 6241,
      ")])": 6242,
      "/.": 6243,
      "05": 6244,
      "49": 6245,
      "87": 6246,
      "95": 6247,
      ">,": 6248,
      ">')": 6249,
      "?\\": 6250,
      "EOF": 6251,
      "EMPTY": 6252,
      "Length": 6253,
      "MS": 6254,
      "Mac": 6255,
      "PU": 6256,
      "aiter": 6257,
      "bc": 6258,
      "bz": 6259,
      "bage": 6260,
      "dable": 6261,
      "dumb": 6262,
      "dates": 6263,
      "go": 6264,
      "hand": 6265,
      "hunk": 6266,
      "ific": 6267,
      "lstrip": 6268,
      "nx": 6269,
      "oss": 6270,
      "qrt": 6271,
      "sanitize": 6272,
      "tmp": 6273,
      "uard": 6274,
      "wi": 6275,
      "}{": 6276,
      "Ġli": 6277,
      "Ġ),": 6278,
      "inc": 6279,
      "record": 6280,
      "repeat": 6281,
      "Ġtriple": 6282,
      "ony": 6283,
      "orsel": 6284,
      "stemp": 6285,
      "levant": 6286,
      "Ġfim": 6287,
      "Ġfront": 6288,
      "Ġcross": 6289,
      "Ġrecom": 6290,
      "Ġpat": 6291,
      "Ġpdict": 6292,
      "Ġbdist": 6293,
      "Ġincremental": 6294,
      "ctoi": 6295,
      "Ġwindows": 6296,
      "ution": 6297,
      "defined": 6298,
      "Ġmon": 6299,
      "Ġdri": 6300,
      "Ġdylib": 6301,
      "ilation": 6302,
      "law": 6303,
      "Ġ\"{": 6304,
      "that": 6305,
      "__))": 6306,
      "Ġofp": 6307,
      "ĠTry": 6308,
      "ĠTHE": 6309,
      "Ġsecurity": 6310,
      "linesep": 6311,
      "ĠIs": 6312,
      "Ġdecimal": 6313,
      "setter": 6314,
      "Ġmaster": 6315,
      "ysroot": 6316,
      "(\"#": 6317,
      "constructor": 6318,
      "sound": 6319,
      "etc": 6320,
      "Ġrv": 6321,
      "Ġrand": 6322,
      "strong": 6323,
      "INVAL": 6324,
      "ĠMethod": 6325,
      "ĠEvent": 6326,
      "Ġunlink": 6327,
      "ĠWith": 6328,
      "ĠWrite": 6329,
      "ĠBut": 6330,
      "success": 6331,
      "Ġclassdict": 6332,
      "']:": 6333,
      "okies": 6334,
      "Ġ[],": 6335,
      "starttag": 6336,
      "Ġintended": 6337,
      "sertionError": 6338,
      "Ġmaybe": 6339,
      "loggers": 6340,
      "ARCH": 6341,
      "Ġprefixes": 6342,
      "ĠInput": 6343,
      "Ġservice": 6344,
      "variance": 6345,
      "Ġsupporting": 6346,
      "ĠReserved": 6347,
      "limited": 6348,
      "Product": 6349,
      "tokenizer": 6350,
      "Ġdisposition": 6351,
      "Ġinputs": 6352,
      "Ġwriteframes": 6353,
      "sockopt": 6354,
      "correct": 6355,
      "MAN": 6356,
      "Ġimplementing": 6357,
      "Ġmodified": 6358,
      "forever": 6359,
      "Stop": 6360,
      "122": 6361,
      "ULAW": 6362,
      "SCA": 6363,
      "addresslist": 6364,
      "agraph": 6365,
      "Named": 6366,
      "DOCUMENT": 6367,
      "completer": 6368,
      "Ġcopyright": 6369,
      "ĠQU": 6370,
      "POP": 6371,
      "SOL": 6372,
      "Ġverify": 6373,
      "Ġsuppress": 6374,
      "Ġterminator": 6375,
      "Ġnamedtuple": 6376,
      "Ġreplacement": 6377,
      "Ġwinreg": 6378,
      "atalog": 6379,
      "declaration": 6380,
      "kipping": 6381,
      "ĠSAXNot": 6382,
      "ttinfo": 6383,
      "Ġinvalidation": 6384,
      "ynchronized": 6385,
      "Ġletter": 6386,
      "Ġletters": 6387,
      "UNICODE": 6388,
      "ĠpublicId": 6389,
      "ĠParse": 6390,
      "metaclass": 6391,
      "Ġdefects": 6392,
      "VALUE": 6393,
      "ĠAddress": 6394,
      "Ġpadding": 6395,
      "Ġ--------------------------------------------------------------------------": 6396,
      "Ġbecomes": 6397,
      "peername": 6398,
      "ĠCompletionRequest": 6399,
      "tkinter": 6400,
      "symlinks": 6401,
      "ĠBreakpoint": 6402,
      "auto": 6403,
      "Ġdefinition": 6404,
      "DeclHandler": 6405,
      "FunctionType": 6406,
      "Ġderived": 6407,
      "customize": 6408,
      "Pickler": 6409,
      "possibly": 6410,
      "Ġgarbage": 6411,
      "'%": 6412,
      "45": 6413,
      "61": 6414,
      "DATE": 6415,
      "It": 6416,
      "IVE": 6417,
      "MD": 6418,
      "Microsoft": 6419,
      "NET": 6420,
      "RAG": 6421,
      "SDK": 6422,
      "Usage": 6423,
      "VC": 6424,
      "WRA": 6425,
      "bels": 6426,
      "broken": 6427,
      "gra": 6428,
      "gger": 6429,
      "guess": 6430,
      "osed": 6431,
      "pand": 6432,
      "persist": 6433,
      "tfile": 6434,
      "zero": 6435,
      "ĊĊĠĠĠĠĠĠĠĠĠĠĠĠĠĠĠĠĠĠĠ": 6436,
      "inux": 6437,
      "rection": 6438,
      "remote": 6439,
      "ervices": 6440,
      "lees": 6441,
      "deque": 6442,
      "always": 6443,
      "enc": 6444,
      "ency": 6445,
      "Ġrebuild": 6446,
      "Ġrefer": 6447,
      "Ġreserved": 6448,
      "Ġrecent": 6449,
      "Ġnbytes": 6450,
      "Ġbroken": 6451,
      "Ġem": 6452,
      "Ġinvoke": 6453,
      "Ġmm": 6454,
      "Ġmargin": 6455,
      "Ġisdst": 6456,
      "Ġdue": 6457,
      "cost": 6458,
      "()')": 6459,
      "().\"\"\"": 6460,
      "ilities": 6461,
      "digit": 6462,
      "verage": 6463,
      "Ġthrow": 6464,
      "isible": 6465,
      "Ġconcat": 6466,
      "Ġ11": 6467,
      "izes": 6468,
      "master": 6469,
      "ider": 6470,
      "setError": 6471,
      "Release": 6472,
      "ĠAut": 6473,
      "ĠAss": 6474,
      "ĠAbstract": 6475,
      "Ġproject": 6476,
      "older": 6477,
      "ctors": 6478,
      "cast": 6479,
      "shm": 6480,
      "ĠMust": 6481,
      "Ġmodulename": 6482,
      "addresses": 6483,
      "ĠLITERAL": 6484,
      "ĠUSE": 6485,
      "ĠUSER": 6486,
      "ĠBack": 6487,
      "ĠBdb": 6488,
      "ĠBOM": 6489,
      "STAR": 6490,
      "pagate": 6491,
      "color": 6492,
      "collect": 6493,
      "Ġklass": 6494,
      "Ġprinting": 6495,
      "LEMENT": 6496,
      "Ġsubdirectories": 6497,
      "DEP": 6498,
      "Ġcodes": 6499,
      "Ġpassing": 6500,
      "uplex": 6501,
      "runtime": 6502,
      "SES": 6503,
      "Ġabort": 6504,
      "openssl": 6505,
      "Ġworking": 6506,
      "Ġdirnames": 6507,
      "sentence": 6508,
      "sentinels": 6509,
      "TEST": 6510,
      "Ġcontinuation": 6511,
      "Ġchecking": 6512,
      "Ġbackslash": 6513,
      "sockname": 6514,
      "Ġgives": 6515,
      "Ġfuncname": 6516,
      "ĠConverting": 6517,
      "ĠContact": 6518,
      ">>>": 6519,
      "State": 6520,
      "Ġexpon": 6521,
      "128": 6522,
      "ADD": 6523,
      "ĠDistutilsSetup": 6524,
      "docs": 6525,
      "groups": 6526,
      "Ġsaved": 6527,
      "Ġ['/": 6528,
      "Ġ\"\".": 6529,
      "ĊĠĠĠĠĠĠĠĠĠĠĠĠĠĠĠĠĠĠĠĠĠĠĠĠĠĠĠĠĠĠĠĠĠĠĠĠĠĠĠĠĠ": 6530,
      "threading": 6531,
      "interning": 6532,
      "Ġlinks": 6533,
      "ĠQP": 6534,
      "Ġtracebacks": 6535,
      "daemon": 6536,
      "Ġtopdown": 6537,
      "RANT": 6538,
      "SOCK": 6539,
      "special": 6540,
      "Ġmarked": 6541,
      "Ġindicate": 6542,
      "Some": 6543,
      "Unable": 6544,
      "Ġsupply": 6545,
      "Ġfixes": 6546,
      "Ġtransition": 6547,
      "ĠLookup": 6548,
      "Ġfnmatch": 6549,
      "URL": 6550,
      "Ġwrites": 6551,
      "Ġremoval": 6552,
      "Ġzipfile": 6553,
      "WARE": 6554,
      "ĠChunk": 6555,
      "systemId": 6556,
      "Ġpreviously": 6557,
      "randbelow": 6558,
      "BOSE": 6559,
      "ĠAssertionError": 6560,
      "Ġspecifying": 6561,
      "voidcmd": 6562,
      "Ġproperties": 6563,
      "ĠModules": 6564,
      "CLU": 6565,
      "Ġterminated": 6566,
      "Ġpurpose": 6567,
      "Ġproviding": 6568,
      "Ġphase": 6569,
      "Ġmaintain": 6570,
      "Ġcontrols": 6571,
      "cleanup": 6572,
      "Ġassigned": 6573,
      "Ġnormally": 6574,
      "PENDING": 6575,
      "Ġnetwork": 6576,
      "compatible": 6577,
      "legal": 6578,
      "itedir": 6579,
      "itialize": 6580,
      "OFTWARE": 6581,
      "itecture": 6582,
      "ĠWARRANT": 6583,
      "soundpos": 6584,
      "ĠDistutilsSetupError": 6585,
      "\"%": 6586,
      "'-": 6587,
      "'<": 6588,
      "'}": 6589,
      ")(": 6590,
      ")\")": 6591,
      "*(": 6592,
      "65": 6593,
      ":',": 6594,
      ":\",": 6595,
      "??": 6596,
      "AP": 6597,
      "Attribute": 6598,
      "Bad": 6599,
      "Col": 6600,
      "DUP": 6601,
      "Find": 6602,
      "Final": 6603,
      "Forking": 6604,
      "Finish": 6605,
      "GER": 6606,
      "HTML": 6607,
      "JSON": 6608,
      "LC": 6609,
      "MAGIC": 6610,
      "PATTERN": 6611,
      "Speci": 6612,
      "URI": 6613,
      "UUID": 6614,
      "WO": 6615,
      "Wh": 6616,
      "]|": 6617,
      "arent": 6618,
      "best": 6619,
      "batch": 6620,
      "blake": 6621,
      "cator": 6622,
      "dn": 6623,
      "failed": 6624,
      "floor": 6625,
      "iff": 6626,
      "mmap": 6627,
      "uary": 6628,
      "wxr": 6629,
      "watcher": 6630,
      "xffff": 6631,
      "Ġul": 6632,
      "sec": 6633,
      "including": 6634,
      "erature": 6635,
      "atis": 6636,
      "atomic": 6637,
      "Ġide": 6638,
      "Ġcancell": 6639,
      "arsa": 6640,
      "enance": 6641,
      "Ġrepe": 6642,
      "Ġrespon": 6643,
      "Ġbisect": 6644,
      "Ġed": 6645,
      "Ġepilogue": 6646,
      "ancy": 6647,
      "Ġifp": 6648,
      "lot": 6649,
      "ssue": 6650,
      "ilent": 6651,
      "uni": 6652,
      "unfinished": 6653,
      "liant": 6654,
      "()),": 6655,
      "()'.": 6656,
      "illed": 6657,
      "race": 6658,
      "exclude": 6659,
      "getline": 6660,
      "ĠTH": 6661,
      "Ġcookies": 6662,
      "Ġthings": 6663,
      "Ġthink": 6664,
      "isinstance": 6665,
      "iscoroutine": 6666,
      "Ġsemant": 6667,
      "atever": 6668,
      "abli": 6669,
      "Ġconvent": 6670,
      "Ġconside": 6671,
      "izing": 6672,
      "mainder": 6673,
      "ĠImport": 6674,
      "idden": 6675,
      "ĠSHA": 6676,
      "ĠServices": 6677,
      "Ġdeli": 6678,
      "uman": 6679,
      "ĠCol": 6680,
      "ĠCtrl": 6681,
      "ĠFrame": 6682,
      "Ġproduct": 6683,
      "eting": 6684,
      "Ġrng": 6685,
      "ĠPopen": 6686,
      "dataclass": 6687,
      "previous": 6688,
      "prerelease": 6689,
      "parallel": 6690,
      "shlex": 6691,
      "ĠNe": 6692,
      "ĠNumber": 6693,
      "ĠMA": 6694,
      "ively": 6695,
      "Ġpause": 6696,
      "Ġbuffers": 6697,
      "Ġpreprocess": 6698,
      "Ġpreferred": 6699,
      "ĠWork": 6700,
      "ĠWarsa": 6701,
      "versions": 6702,
      "typecode": 6703,
      "ĠLink": 6704,
      "ATOR": 6705,
      "supp": 6706,
      "actual": 6707,
      "Ġsubpart": 6708,
      "never": 6709,
      "functions": 6710,
      "Ġlogin": 6711,
      "Ġmaxlen": 6712,
      "rences": 6713,
      "Ġshouldn": 6714,
      "Ġtrack": 6715,
      "Ġbasename": 6716,
      "Ġappdata": 6717,
      "ĠHowever": 6718,
      "Ġsizeof": 6719,
      "FIRST": 6720,
      "configure": 6721,
      "ĠReplace": 6722,
      "Ġcontextlib": 6723,
      "maxc": 6724,
      "tokenize": 6725,
      "COL": 6726,
      "Ġdisk": 6727,
      "Ġbacklog": 6728,
      "ĠExample": 6729,
      "FileLoader": 6730,
      "anging": 6731,
      "Ġmanip": 6732,
      "ĠJust": 6733,
      "contents": 6734,
      "Resource": 6735,
      "Ġ'_'": 6736,
      "ROM": 6737,
      "blocks": 6738,
      "ĊĠĠĠĠĠĠĠĠĠĠĠĠĠĠĠĠĠĠĠĠĠĠĠĠĠĠĠĠĠĠĠĠĠĠĠĠĠĠĠĠĠĠĠĠ": 6739,
      "ĊĠĠĠĠĠĠĠĠĠĠĠĠĠĠĠĠĠĠĠĠĠĠĠĠĠĠĠĠĠĠĠĠĠĠĠĠĠĠĠĠĠĠĠĠĠĠĠ": 6740,
      "desc": 6741,
      "Ġrespect": 6742,
      "Ġinitialized": 6743,
      "interval": 6744,
      "Ġcallbacks": 6745,
      "Ġsuffixes": 6746,
      "DIRECT": 6747,
      "POSIX": 6748,
      "Ġexiting": 6749,
      "sorted": 6750,
      "tzname": 6751,
      "initialized": 6752,
      "Ġtransfer": 6753,
      "Change": 6754,
      "SYN": 6755,
      "ssldata": 6756,
      "Ġagent": 6757,
      "SUB": 6758,
      "Ġlatter": 6759,
      "invalidation": 6760,
      "Ġdocstring": 6761,
      "vider": 6762,
      "Ġconsists": 6763,
      "Ġseparators": 6764,
      "PPING": 6765,
      "Ġshebang": 6766,
      "devnull": 6767,
      "Ġhappens": 6768,
      "Ġproperly": 6769,
      "MBER": 6770,
      "lapsed": 6771,
      "Traceback": 6772,
      "FUNCFLAG": 6773,
      "Ġappears": 6774,
      "ĠTokenInfo": 6775,
      "Ġmydata": 6776,
      "CloseHandle": 6777,
      "EndDialog": 6778,
      "Ġalternative": 6779,
      "ĠPermission": 6780,
      "Ġcontroll": 6781,
      "ĠTimeoutError": 6782,
      "Status": 6783,
      "ĠSupport": 6784,
      "parameter": 6785,
      "Resolver": 6786,
      "Ġcumulative": 6787,
      "Ġinstanti": 6788,
      "Ġoctets": 6789,
      "Structure": 6790,
      "etoptError": 6791,
      "FUTURE": 6792,
      "Ġreached": 6793,
      "ĠArguments": 6794,
      "nologo": 6795,
      "ĠWARRANTIES": 6796,
      "Ġconsidered": 6797,
      "ĠWarsaw": 6798,
      "/_": 6799,
      "07": 6800,
      "37": 6801,
      "300": 6802,
      "400": 6803,
      "89": 6804,
      "=(),": 6805,
      "><": 6806,
      "All": 6807,
      "BlockingIOError": 6808,
      "CPP": 6809,
      "FRA": 6810,
      "LF": 6811,
      "NING": 6812,
      "Private": 6813,
      "Raise": 6814,
      "Sh": 6815,
      "TARGET": 6816,
      "VI": 6817,
      "WIN": 6818,
      "[\\": 6819,
      "[_": 6820,
      "^\\": 6821,
      "amd": 6822,
      "audio": 6823,
      "bound": 6824,
      "cfile": 6825,
      "clib": 6826,
      "cwd": 6827,
      "dt": 6828,
      "elif": 6829,
      "gress": 6830,
      "gzip": 6831,
      "history": 6832,
      "icon": 6833,
      "lon": 6834,
      "literal": 6835,
      "middle": 6836,
      "pus": 6837,
      "save": 6838,
      "sql": 6839,
      "scope": 6840,
      "xception": 6841,
      "ze": 6842,
      "Ġjob": 6843,
      "reates": 6844,
      "oroutine": 6845,
      "Ġamount": 6846,
      "decomp": 6847,
      "Ġcut": 6848,
      "Ġcnt": 6849,
      "Ġpwd": 6850,
      "Ġpersist": 6851,
      "Ġnative": 6852,
      "Ġ'#": 6853,
      "Ġ'[": 6854,
      "Ġ'\"'": 6855,
      "Ġiff": 6856,
      "loss": 6857,
      "lookup": 6858,
      "Ġdfile": 6859,
      "Ġdummy": 6860,
      "unquote": 6861,
      "unsupported": 6862,
      "untered": 6863,
      "coders": 6864,
      "Ġaname": 6865,
      "Ġtoc": 6866,
      "Ġtodo": 6867,
      "exact": 6868,
      "__}": 6869,
      "__\")": 6870,
      "chor": 6871,
      "Ġnotation": 6872,
      "getter": 6873,
      "isabstractmethod": 6874,
      "Ġseems": 6875,
      "ops": 6876,
      "Ġ17": 6877,
      "('\\\\": 6878,
      "spac": 6879,
      "ĠID": 6880,
      "codec": 6881,
      "Ġdevi": 6882,
      "Ġdeepcopy": 6883,
      "constant": 6884,
      "Ġ[])": 6885,
      "some": 6886,
      "Ġimports": 6887,
      "Ref": 6888,
      "Ġalong": 6889,
      "Ġalphabet": 6890,
      "Ġproactor": 6891,
      "Ġgive": 6892,
      "Ġsuc": 6893,
      "keyword": 6894,
      "apply": 6895,
      "elcome": 6896,
      "Ġwhatever": 6897,
      "preter": 6898,
      "product": 6899,
      "ĠThey": 6900,
      "REF": 6901,
      "REQUEST": 6902,
      "ĠNE": 6903,
      "ĠNL": 6904,
      "Ġunix": 6905,
      "Ġunregister": 6906,
      "Ġunexpected": 6907,
      "Ġ</": 6908,
      "ERY": 6909,
      "Ġlisted": 6910,
      "Ġlistener": 6911,
      "Ġpardir": 6912,
      "itertools": 6913,
      "mbd": 6914,
      "Ġargrepr": 6915,
      "basestring": 6916,
      "Ġleave": 6917,
      "ĠRaw": 6918,
      "MException": 6919,
      "ĠBroken": 6920,
      "ĠBarry": 6921,
      "ĠVS": 6922,
      "ĠVersion": 6923,
      "Ġprints": 6924,
      "question": 6925,
      "DEF": 6926,
      "ivate": 6927,
      "rune": 6928,
      "Ġpost": 6929,
      "Ġwake": 6930,
      "logging": 6931,
      "Ġacquire": 6932,
      "='',": 6933,
      "Ġtexts": 6934,
      "Ġdironly": 6935,
      "PEC": 6936,
      "ĠRemove": 6937,
      "NOWN": 6938,
      "TEXT": 6939,
      "AGES": 6940,
      "Ġnexttok": 6941,
      "installation": 6942,
      "findall": 6943,
      "Ġdisc": 6944,
      "Ġdisabled": 6945,
      "sample": 6946,
      "malloc": 6947,
      "MAPPING": 6948,
      "UTH": 6949,
      "share": 6950,
      ":].": 6951,
      "Ġexecute": 6952,
      "localhost": 6953,
      "OFF": 6954,
      "BaseModel": 6955,
      "sendcmd": 6956,
      "Ġsampwidth": 6957,
      "Session": 6958,
      "LIC": 6959,
      "Ġheadersonly": 6960,
      "ILINE": 6961,
      "complex": 6962,
      "Ġcopying": 6963,
      "EXTEN": 6964,
      "SHO": 6965,
      "arguments": 6966,
      "Ġtransports": 6967,
      "POLL": 6968,
      "Ġshare": 6969,
      "VERBOSE": 6970,
      "SOCKE": 6971,
      "iew": 6972,
      "LLM": 6973,
      "iocp": 6974,
      "Ġdestination": 6975,
      "Ġdestroy": 6976,
      "Ġdstoff": 6977,
      "Ġreported": 6978,
      "IGNORECASE": 6979,
      "mkdir": 6980,
      "changelog": 6981,
      "Ġaudioop": 6982,
      "vocab": 6983,
      "BOUND": 6984,
      "auss": 6985,
      "Ġboundaries": 6986,
      "ĠDiff": 6987,
      "Distribution": 6988,
      "ĠPyPI": 6989,
      "Ġembedded": 6990,
      "Ġpurposes": 6991,
      "ĠNodeFilter": 6992,
      "expanduser": 6993,
      "Ġsending": 6994,
      "Ġswitch": 6995,
      "Ġtreat": 6996,
      "machine": 6997,
      "pickle": 6998,
      "vision": 6999,
      "Ġdetermined": 7000,
      "Ġplus": 7001,
      "Ġdependency": 7002,
      "Ġdependencies": 7003,
      "LINK": 7004,
      "Ġcertain": 7005,
      "Ġreceive": 7006,
      "Item": 7007,
      "Ġconsumed": 7008,
      "Ġgreater": 7009,
      "Importer": 7010,
      "Ġusually": 7011,
      "ĠArgs": 7012,
      "Ġencountered": 7013,
      "TestsFrom": 7014,
      "aneous": 7015,
      "producer": 7016,
      "Ġnested": 7017,
      "arshal": 7018,
      "Ġsearched": 7019,
      "Ġconcaten": 7020,
      "ĠAssume": 7021,
      "CLUDE": 7022,
      "Ġsemantics": 7023,
      "FRAME": 7024,
      "spacing": 7025,
      "\"<": 7026,
      "#!": 7027,
      "+'": 7028,
      "63": 7029,
      "67": 7030,
      "600": 7031,
      "<<": 7032,
      "Foo": 7033,
      "ILE": 7034,
      "OPT": 7035,
      "Tree": 7036,
      "TypeError": 7037,
      "Types": 7038,
      "Util": 7039,
      "View": 7040,
      "Za": 7041,
      "_*": 7042,
      "aint": 7043,
      "air": 7044,
      "ball": 7045,
      "beta": 7046,
      "clo": 7047,
      "ccompiler": 7048,
      "dat": 7049,
      "haps": 7050,
      "ient": 7051,
      "mid": 7052,
      "octet": 7053,
      "plain": 7054,
      "qp": 7055,
      "rfind": 7056,
      "she": 7057,
      "shed": 7058,
      "sleep": 7059,
      "uous": 7060,
      "vv": 7061,
      "xd": 7062,
      "seed": 7063,
      "semaphore": 7064,
      "sensitive": 7065,
      "inv": 7066,
      "instruction": 7067,
      "relative": 7068,
      "reserved": 7069,
      "Ġtm": 7070,
      "Ġtty": 7071,
      "orm": 7072,
      "erge": 7073,
      "atexit": 7074,
      "lest": 7075,
      "Ġaffect": 7076,
      "dec": 7077,
      "delay": 7078,
      "heapreplace": 7079,
      "Ġfl": 7080,
      "Ġfully": 7081,
      "Ġcb": 7082,
      "Ġcl": 7083,
      "aring": 7084,
      "Ġrecor": 7085,
      "Ġpla": 7086,
      "Ġpow": 7087,
      "Ġslow": 7088,
      "Ġnull": 7089,
      "Ġbasic": 7090,
      "Ġ'..": 7091,
      "Ġeol": 7092,
      "Ġeof": 7093,
      "ingw": 7094,
      "utput": 7095,
      "Ġmmap": 7096,
      "Ġreturncode": 7097,
      "lier": 7098,
      "()._": 7099,
      "Ġ\"#": 7100,
      "Ġ\"*": 7101,
      "isysroot": 7102,
      "Ġsemaphore": 7103,
      "Ġhit": 7104,
      "Ġconstant": 7105,
      "Ġ1000": 7106,
      "mailfrom": 7107,
      "ĠImplement": 7108,
      "ĠIssue": 7109,
      "ĠSkip": 7110,
      "updated": 7111,
      "tool": 7112,
      "uming": 7113,
      "Ġ[_": 7114,
      "Ġ['.": 7115,
      "Ġimporting": 7116,
      "ĠClose": 7117,
      "ĠFIN": 7118,
      "Ġgc": 7119,
      "applied": 7120,
      "__(*": 7121,
      "Ġenc": 7122,
      "Ġengine": 7123,
      "chema": 7124,
      "chemy": 7125,
      "msvc": 7126,
      "ird": 7127,
      "provider": 7128,
      "ĠDis": 7129,
      "Ġsetparams": 7130,
      "ship": 7131,
      "should": 7132,
      "ĠNAME": 7133,
      "ĠMode": 7134,
      "ĠEdit": 7135,
      "Ġyy": 7136,
      "Ġyields": 7137,
      "ĠWA": 7138,
      "ĠWH": 7139,
      "ĠWIN": 7140,
      "Ġcompact": 7141,
      "noun": 7142,
      "mbol": 7143,
      "mbcs": 7144,
      "Ġadding": 7145,
      "ĠLinux": 7146,
      "MESS": 7147,
      "ĠValue": 7148,
      "LEVE": 7149,
      "callees": 7150,
      "Ġ('',": 7151,
      "DECL": 7152,
      "Ġcodeset": 7153,
      "charref": 7154,
      "Ġendpoint": 7155,
      "Ġpointer": 7156,
      "Ġabc": 7157,
      "Ġabbr": 7158,
      "Ġacross": 7159,
      "ĠInstall": 7160,
      "ĠĠĠĠĠĠĠĠĠĠĠĠĠĠĠĠĠ": 7161,
      "Ġtranslation": 7162,
      "bool": 7163,
      "ĠStack": 7164,
      "mallest": 7165,
      "LOSE": 7166,
      "Ġexecuting": 7167,
      "Ġvariant": 7168,
      "comments": 7169,
      "modname": 7170,
      "SCHE": 7171,
      "Ġcreation": 7172,
      "NABLE": 7173,
      "Ġfollows": 7174,
      "TERS": 7175,
      "DOUT": 7176,
      "Compress": 7177,
      "Ġsym": 7178,
      "IGHT": 7179,
      "rictVersion": 7180,
      "Ġdocuments": 7181,
      "interrupt": 7182,
      "Ġlinking": 7183,
      "Ġportion": 7184,
      "dispatcher": 7185,
      "Ġgroups": 7186,
      "parents": 7187,
      "Ġskipkeys": 7188,
      "Ġselected": 7189,
      "ACCESS": 7190,
      "999": 7191,
      "QUOP": 7192,
      "initialspace": 7193,
      "ĠProtocol": 7194,
      "SIZEOF": 7195,
      "Ġhostname": 7196,
      "ĠInter": 7197,
      "ĠSettings": 7198,
      "Ġround": 7199,
      "Ġusable": 7200,
      "SystemId": 7201,
      "Ġreductor": 7202,
      "NOTIFI": 7203,
      "Ġsrcdir": 7204,
      "ordering": 7205,
      "192": 7206,
      "Ġbitmap": 7207,
      "Ġdeclstartpos": 7208,
      "ElementHandler": 7209,
      "ĠStreamWriter": 7210,
      "softspace": 7211,
      "Ġlongest": 7212,
      "PROCESS": 7213,
      "PROJECT": 7214,
      "Sources": 7215,
      "ĠGeneric": 7216,
      "Ġcopies": 7217,
      "Ġproduces": 7218,
      "Traversal": 7219,
      "XMLRPCRequestHandler": 7220,
      "Ġcorrectly": 7221,
      "subclasshook": 7222,
      "Ġduplicates": 7223,
      "Ġmsvcrt": 7224,
      "ĠSOURCE": 7225,
      "ĠMakefile": 7226,
      "Ġtreated": 7227,
      "384": 7228,
      "Ġevalu": 7229,
      "ĠQuot": 7230,
      "ĠEMPTYSTRING": 7231,
      "################################################################################": 7232,
      "embedder": 7233,
      "ockLLM": 7234,
      "Quit": 7235,
      "ĠPYTHON": 7236,
      "PrefixMapping": 7237,
      "BytesIO": 7238,
      "license": 7239,
      "Ġestimate": 7240,
      "Ġexpansion": 7241,
      "ĠmajorVersion": 7242,
      "INSTALL": 7243,
      "ĠHelper": 7244,
      "UNKNOWN": 7245,
      "ĠKeep": 7246,
      "MacOSX": 7247,
      "Ġrecommen": 7248,
      "ĠInputSource": 7249,
      "Ġcancellation": 7250,
      "SOCKET": 7251,
      "FRAMEWORK": 7252,
      "LEVEL": 7253,
      "SCHEME": 7254,
      "QUOPRI": 7255,
      "NOTIFIED": 7256,
      "'d": 7257,
      "(**": 7258,
      ")?": 7259,
      "*',": 7260,
      ",),": 7261,
      "09": 7262,
      "501": 7263,
      "91": 7264,
      ":/": 7265,
      "=[\"": 7266,
      "={}": 7267,
      "AUDIO": 7268,
      "BACK": 7269,
      "CATED": 7270,
      "Date": 7271,
      "ELEMENT": 7272,
      "Fd": 7273,
      "Next": 7274,
      "Pass": 7275,
      "UX": 7276,
      "Use": 7277,
      "VS": 7278,
      "Work": 7279,
      "WLINE": 7280,
      "WITH": 7281,
      "You": 7282,
      "]\",": 7283,
      "apt": 7284,
      "cd": 7285,
      "dynamic": 7286,
      "fa": 7287,
      "fq": 7288,
      "fto": 7289,
      "mul": 7290,
      "sift": 7291,
      "sWorkspace": 7292,
      "tabs": 7293,
      "torch": 7294,
      "vp": 7295,
      "xt": 7296,
      "xz": 7297,
      "ymbol": 7298,
      "Ġtells": 7299,
      "eration": 7300,
      "Ġil": 7301,
      "stand": 7302,
      "Ġaway": 7303,
      "Ġfoo": 7304,
      "Ġfloor": 7305,
      "Ġcla": 7306,
      "Ġcircular": 7307,
      "\"\")": 7308,
      "cel": 7309,
      "Ġslot": 7310,
      "Ġsilent": 7311,
      "Ġnice": 7312,
      "Ġ'(": 7313,
      "anis": 7314,
      "rome": 7315,
      "ssnd": 7316,
      "Ġmid": 7317,
      "rase": 7318,
      "Ġ\"&": 7319,
      "Ġstand": 7320,
      "Ġexclude": 7321,
      "dim": 7322,
      "ĠTimer": 7323,
      "isabs": 7324,
      "Ġhold": 7325,
      "ash": 7326,
      "assert": 7327,
      "Ġconst": 7328,
      "Ġ+---------------+": 7329,
      "Ġorig": 7330,
      "Ġask": 7331,
      "')):": 7332,
      "mak": 7333,
      "ĠSpeci": 7334,
      "Ġdeep": 7335,
      "setblocking": 7336,
      "(\"[": 7337,
      "upFd": 7338,
      "lyResult": 7339,
      "***": 7340,
      "Ġstrong": 7341,
      "ĠCANCELLED": 7342,
      "ĠFsWorkspace": 7343,
      "Register": 7344,
      "libs": 7345,
      "Ġendian": 7346,
      "ĠDAM": 7347,
      "ĠDWORD": 7348,
      "clang": 7349,
      "Ġ24": 7350,
      "Ġ2000": 7351,
      "ĠNon": 7352,
      "ĠMAC": 7353,
      "component": 7354,
      "compare": 7355,
      "Ġuncompressed": 7356,
      "Ġbug": 7357,
      "Ġatexit": 7358,
      "Ġlisten": 7359,
      "Ġcomps": 7360,
      "Ġoutqueue": 7361,
      "mbig": 7362,
      "Ġnewlines": 7363,
      "ONT": 7364,
      "-------------------+": 7365,
      "ĠBZ": 7366,
      "Ġreads": 7367,
      "ifp": 7368,
      "pause": 7369,
      "reply": 7370,
      "Ġsubstit": 7371,
      "Ġ31": 7372,
      "Ġoptionally": 7373,
      "poch": 7374,
      "Exists": 7375,
      "Infinity": 7376,
      "Ġjulian": 7377,
      "Cont": 7378,
      "validate": 7379,
      "Ġbutton": 7380,
      "Ġformatting": 7381,
      "Ġupon": 7382,
      "ĠGzipFile": 7383,
      "ofp": 7384,
      "Ġtransp": 7385,
      "Property": 7386,
      "Progress": 7387,
      "subset": 7388,
      "Ġoverhead": 7389,
      "Ġ\\\"": 7390,
      "Ġiteration": 7391,
      "Ġgeneral": 7392,
      "encodings": 7393,
      "Storage": 7394,
      "Ġexpat": 7395,
      "ĠUnion": 7396,
      "sendall": 7397,
      "LIM": 7398,
      "Ġtheyear": 7399,
      "DOMException": 7400,
      "warnmsg": 7401,
      "Ġordering": 7402,
      "Ġspan": 7403,
      "Ġprogra": 7404,
      "skipkeys": 7405,
      "Ġarchs": 7406,
      "...)": 7407,
      "Ġskipinitialspace": 7408,
      "ACCEPT": 7409,
      "Ġloading": 7410,
      "Ġindices": 7411,
      "QUERY": 7412,
      "Generate": 7413,
      "Nodes": 7414,
      "xmlns": 7415,
      "PRECATED": 7416,
      "ĠJSONDecodeError": 7417,
      "Ġgoes": 7418,
      "Ġvalidate": 7419,
      "Ġhowever": 7420,
      "workspaces": 7421,
      "StringIO": 7422,
      "PathLike": 7423,
      "HOME": 7424,
      "writable": 7425,
      "Ġconsistent": 7426,
      "2008": 7427,
      "Ġdeclarations": 7428,
      "Execute": 7429,
      "Optional": 7430,
      "ĠDict": 7431,
      "swer": 7432,
      "resting": 7433,
      "Ġreasons": 7434,
      "ĠProcessPoolExecutor": 7435,
      "FUNCTION": 7436,
      "ĠIterable": 7437,
      "Ġprobability": 7438,
      "COMPI": 7439,
      "COMMENT": 7440,
      "Ġattempts": 7441,
      "Ġwraps": 7442,
      "Ġcollected": 7443,
      "Ġgenericpath": 7444,
      "rerror": 7445,
      "Ġsense": 7446,
      "Ġcomparisons": 7447,
      "ĠUNIX": 7448,
      "Ġterminal": 7449,
      "Mixin": 7450,
      "MixIn": 7451,
      "ABCMeta": 7452,
      "greeting": 7453,
      "Formatter": 7454,
      "Interface": 7455,
      "yphen": 7456,
      "dupes": 7457,
      "NonMultipart": 7458,
      "ĠExpatBuilder": 7459,
      "MULTILINE": 7460,
      "ĠLLMBackend": 7461,
      "Ġslug": 7462,
      "DOTALL": 7463,
      "Ġmanagement": 7464,
      "Supported": 7465,
      "ProductName": 7466,
      "StateError": 7467,
      "ĠTHIS": 7468,
      "Ġdestroyed": 7469,
      "aintenance": 7470,
      "ĠFINISHED": 7471,
      "nounce": 7472,
      "TraversalError": 7473,
      "fqdn": 7474,
      "ftover": 7475,
      "Ġsilently": 7476,
      "ĠDAMAGES": 7477,
      "ExistsError": 7478,
      "$'": 7479,
      "1000": 7480,
      "52": 7481,
      "=/": 7482,
      "=')": 7483,
      "=\"\",": 7484,
      "?[": 7485,
      "Access": 7486,
      "Arg": 7487,
      "BY": 7488,
      "Backend": 7489,
      "Clean": 7490,
      "CLOSE": 7491,
      "Dec": 7492,
      "DIG": 7493,
      "EE": 7494,
      "Maintenance": 7495,
      "RD": 7496,
      "Size": 7497,
      "Vari": 7498,
      "Waiter": 7499,
      "\\.": 7500,
      "]')": 7501,
      "]\")": 7502,
      "css": 7503,
      "ccept": 7504,
      "circular": 7505,
      "failfast": 7506,
      "gates": 7507,
      "iod": 7508,
      "nl": 7509,
      "pipes": 7510,
      "rlen": 7511,
      "sun": 7512,
      "tic": 7513,
      "ude": 7514,
      "wt": 7515,
      "xfd": 7516,
      "ĊĊĠĠĠĠĠĠ": 7517,
      "Ġ?": 7518,
      "Ġ):": 7519,
      "Ġtr": 7520,
      "orig": 7521,
      "atio": 7522,
      "Ġie": 7523,
      "Ġimage": 7524,
      "strerror": 7525,
      "Ġauthkey": 7526,
      "Ġambig": 7527,
      "depen": 7528,
      "decompressor": 7529,
      "Ġfour": 7530,
      "Ġfws": 7531,
      "Ġctype": 7532,
      "Ġcatch": 7533,
      "arded": 7534,
      "arDown": 7535,
      "ens": 7536,
      "endian": 7537,
      "Ġreuse": 7538,
      "Ġrecogn": 7539,
      "Ġrelevant": 7540,
      "urther": 7541,
      "ceive": 7542,
      "Ġplain": 7543,
      "Ġoth": 7544,
      "Ġsit": 7545,
      "Ġsalt": 7546,
      "Ġslash": 7547,
      "Ġslashes": 7548,
      "Ġnchannels": 7549,
      "Ġ'&": 7550,
      "Ġ'*": 7551,
      "Ġ'>": 7552,
      "Ġ'{}": 7553,
      "Ġecho": 7554,
      "Ġinqueue": 7555,
      "Ġincrement": 7556,
      "mpling": 7557,
      "locate": 7558,
      "Ġmove": 7559,
      "Ġiscased": 7560,
      "ged": 7561,
      "Ġ(-": 7562,
      "Ġ(``": 7563,
      "nth": 7564,
      "orth": 7565,
      "threshold": 7566,
      "uler": 7567,
      "__\"": 7568,
      "chable": 7569,
      "chanis": 7570,
      "dialog": 7571,
      "getrandbits": 7572,
      "Ġcour": 7573,
      "Ġsem": 7574,
      "andator": 7575,
      "Ġhol": 7576,
      "Ġhig": 7577,
      "Ġhuman": 7578,
      "Ġconvenience": 7579,
      "Ġ+--------": 7580,
      "ationship": 7581,
      "ĠIO": 7582,
      "ĠSW": 7583,
      "ĠSplit": 7584,
      "ĠSOFTWARE": 7585,
      "Ġdev": 7586,
      "Ġdeque": 7587,
      "Ġmechanis": 7588,
      "(\"_": 7589,
      "))[": 7590,
      "fffe": 7591,
      "ĠCOM": 7592,
      "ĠFork": 7593,
      "ĠFTP": 7594,
      "ĠFILE": 7595,
      "Ġdigit": 7596,
      "formed": 7597,
      "Ġgrp": 7598,
      "Ġgmtoff": 7599,
      "tearDown": 7600,
      "libname": 7601,
      "etype": 7602,
      "ĠPRE": 7603,
      "ĠPrint": 7604,
      "ĠPool": 7605,
      "ĠPOP": 7606,
      "ĠPolicy": 7607,
      "Ġenter": 7608,
      "matches": 7609,
      "predecessors": 7610,
      "ĠData": 7611,
      "REA": 7612,
      "REG": 7613,
      "REGI": 7614,
      "installed": 7615,
      "INCLUDE": 7616,
      "ĠElement": 7617,
      "ĠWarning": 7618,
      "Ġwheel": 7619,
      "Ġwhenever": 7620,
      "ĠLAT": 7621,
      "ĠRights": 7622,
      "STO": 7623,
      "STDOUT": 7624,
      "pache": 7625,
      "calar": 7626,
      "Ġ('-": 7627,
      "DEPRECATED": 7628,
      "ulldom": 7629,
      "Ġaddition": 7630,
      "Condition": 7631,
      "Ġacct": 7632,
      "ĠInclude": 7633,
      "Ġserve": 7634,
      "kws": 7635,
      "ĠGCC": 7636,
      "ĠGiven": 7637,
      "PEN": 7638,
      "rows": 7639,
      "Provides": 7640,
      "contexts": 7641,
      "Ġdiscard": 7642,
      "usersite": 7643,
      "exitcode": 7644,
      "Ġoverlap": 7645,
      "Ġgiving": 7646,
      "Ġ'-':": 7647,
      "LOW": 7648,
      "Ġperhaps": 7649,
      "Ġperiod": 7650,
      "Ġconfigured": 7651,
      "agIndex": 7652,
      "LIST": 7653,
      "NamePattern": 7654,
      "TestResult": 7655,
      "anner": 7656,
      "ava": 7657,
      "2231": 7658,
      "Ġextend": 7659,
      "mtable": 7660,
      "Ġfew": 7661,
      "Ġstructures": 7662,
      "EXIST": 7663,
      "Ġlooks": 7664,
      "FILENO": 7665,
      "CONN": 7666,
      "fsdecode": 7667,
      "generated": 7668,
      "Ġhashing": 7669,
      "Ġseparated": 7670,
      "NotImplemented": 7671,
      "Ġdesired": 7672,
      "specified": 7673,
      "structured": 7674,
      "transfer": 7675,
      "implicit": 7676,
      "syntax": 7677,
      "Ġtyped": 7678,
      "ragent": 7679,
      "hashlib": 7680,
      "excepthook": 7681,
      "bytearray": 7682,
      "Ġautoraise": 7683,
      "finite": 7684,
      "ĠXMLReader": 7685,
      "Ġmetaclass": 7686,
      "Ġaliases": 7687,
      "marker": 7688,
      "Ġprim": 7689,
      "Modules": 7690,
      "ĠFileExistsError": 7691,
      "ugging": 7692,
      "LDFLAGS": 7693,
      "ĠSocket": 7694,
      "Form": 7695,
      "Ġ'\\\\',": 7696,
      "Ġreleases": 7697,
      "GETTERS": 7698,
      "Ġgenerators": 7699,
      "CaseClass": 7700,
      "LINEAR": 7701,
      "ĠFutures": 7702,
      "Ġissues": 7703,
      "terminate": 7704,
      "uplicate": 7705,
      "ElementNS": 7706,
      "IFEST": 7707,
      "Ġstripdir": 7708,
      "PipeTransport": 7709,
      "Distutils": 7710,
      "ĠDEF": 7711,
      "ĠABCMeta": 7712,
      "ĠTextIOWrapper": 7713,
      "identity": 7714,
      "realpath": 7715,
      "Ġchoose": 7716,
      "Ġterminate": 7717,
      "Ġrelationship": 7718,
      "ĠSOCK": 7719,
      "Methods": 7720,
      "ĠOverflowError": 7721,
      "calledfuncs": 7722,
      "Ġswig": 7723,
      "EventLoopPolicy": 7724,
      "CPServer": 7725,
      "alignment": 7726,
      "DOMImplementation": 7727,
      "Ġmatched": 7728,
      "ĠsuiteClass": 7729,
      "LINUX": 7730,
      "Ġcertfile": 7731,
      "Ġpeer": 7732,
      "Ġdescribed": 7733,
      "Array": 7734,
      "Items": 7735,
      "Ġlowercase": 7736,
      "Ġcapture": 7737,
      "plural": 7738,
      "Ġtiming": 7739,
      "Ġtimings": 7740,
      "inheritable": 7741,
      "Ġcauses": 7742,
      "Ġretrieved": 7743,
      "Ġ'\"':": 7744,
      "Ġapproach": 7745,
      "ArgumentParser": 7746,
      "consts": 7747,
      "letters": 7748,
      "integer": 7749,
      "Ġearlier": 7750,
      "ĠMulti": 7751,
      "Ġsuccessfully": 7752,
      "cellaneous": 7753,
      "ammavariate": 7754,
      "ĠTrans": 7755,
      "Ġpieces": 7756,
      "INVALID": 7757,
      "ĠLinkError": 7758,
      "DIRECTORY": 7759,
      "Ġsucceed": 7760,
      "MESSAGE": 7761,
      "Ġothers": 7762,
      "andatory": 7763,
      "ĠLATIN": 7764,
      "NamePatterns": 7765,
      "\"#": 7766,
      "';": 7767,
      "'}:": 7768,
      "(__": 7769,
      "(('": 7770,
      ")-": 7771,
      "*')": 7772,
      "88": 7773,
      ";\")": 7774,
      ">.": 7775,
      ">[": 7776,
      "AY": 7777,
      "CALL": 7778,
      "Current": 7779,
      "DID": 7780,
      "Empty": 7781,
      "Edit": 7782,
      "Flag": 7783,
      "Lim": 7784,
      "NON": 7785,
      "Or": 7786,
      "QP": 7787,
      "Raw": 7788,
      "Skip": 7789,
      "Software": 7790,
      "UPRE": 7791,
      "]\"": 7792,
      "](": 7793,
      "_',": 7794,
      "`,": 7795,
      "bat": 7796,
      "bot": 7797,
      "cxx": 7798,
      "cdf": 7799,
      "drain": 7800,
      "hint": 7801,
      "oin": 7802,
      "ook": 7803,
      "pg": 7804,
      "prune": 7805,
      "pulldom": 7806,
      "qsize": 7807,
      "rule": 7808,
      "spe": 7809,
      "snd": 7810,
      "sync": 7811,
      "scr": 7812,
      "salt": 7813,
      "sqrt": 7814,
      "tim": 7815,
      "uish": 7816,
      "ulaw": 7817,
      "yx": 7818,
      "Ġge": 7819,
      "Ġ])": 7820,
      "sequence": 7821,
      "recur": 7822,
      "Ġte": 7823,
      "ormed": 7824,
      "ordered": 7825,
      "Ġ=\",": 7826,
      "lformed": 7827,
      "dele": 7828,
      "Ġflow": 7829,
      "Ġflush": 7830,
      "Ġfrequency": 7831,
      "allocated": 7832,
      "alchemy": 7833,
      "Ġreject": 7834,
      "Ġrenamed": 7835,
      "Ġrecursion": 7836,
      "urls": 7837,
      "ceeded": 7838,
      "Ġscale": 7839,
      "Ġside": 7840,
      "Ġslice": 7841,
      "Ġslave": 7842,
      "Ġ';": 7843,
      "Ġ'~": 7844,
      "Ġeg": 7845,
      "announce": 7846,
      "inguish": 7847,
      "Ġinpackage": 7848,
      "rounds": 7849,
      "lover": 7850,
      "unic": 7851,
      "unctions": 7852,
      "could": 7853,
      "()',": 7854,
      "oneInfo": 7855,
      "ckpt": 7856,
      "ract": 7857,
      "Ġ\"[": 7858,
      "example": 7859,
      "Ġforward": 7860,
      "Ġste": 7861,
      "Ġstar": 7862,
      "Ġnotdone": 7863,
      "Ġ\"\"\"+": 7864,
      "dialect": 7865,
      "getframe": 7866,
      "getpass": 7867,
      "ĠTLS": 7868,
      "verter": 7869,
      "rix": 7870,
      "rian": 7871,
      "Ġseed": 7872,
      "vectors": 7873,
      "andbox": 7874,
      "Ġhlist": 7875,
      "Ġhdr": 7876,
      "fifo": 7877,
      "endor": 7878,
      "Ġconcrete": 7879,
      "ithread": 7880,
      "('\"',": 7881,
      "sper": 7882,
      "Ġloss": 7883,
      "settrace": 7884,
      "Ġ==================================": 7885,
      "Ġmeth": 7886,
      "Ġ[(\"": 7887,
      "ĠCy": 7888,
      "ĠCurrent": 7889,
      "ĠFim": 7890,
      "ĠFIM": 7891,
      "ĠFROM": 7892,
      "ResetError": 7893,
      "Ġdiv": 7894,
      "ances": 7895,
      "etch": 7896,
      "ĠPackage": 7897,
      "appush": 7898,
      "dataclasses": 7899,
      "osix": 7900,
      "Ġenabled": 7901,
      "Ġonto": 7902,
      "reachable": 7903,
      "olume": 7904,
      "preprocess": 7905,
      "Ġheappop": 7906,
      "pypi": 7907,
      "instream": 7908,
      "Ġweak": 7909,
      "Ġ21": 7910,
      "pardir": 7911,
      "ĠNT": 7912,
      "ĠNet": 7913,
      "timedelta": 7914,
      "Ġsysid": 7915,
      "ĠMod": 7916,
      "mmutable": 7917,
      "ERT": 7918,
      "ipv": 7919,
      "iple": 7920,
      "Ġadjust": 7921,
      "Ġhascased": 7922,
      "Ġnewitem": 7923,
      "Ġkeyfile": 7924,
      "Ġlr": 7925,
      "emory": 7926,
      "emLock": 7927,
      "ĠUsage": 7928,
      "ĠRC": 7929,
      "ĠRational": 7930,
      "ĠVisual": 7931,
      "pawn": 7932,
      "activate": 7933,
      "double": 7934,
      "Ġcharmap": 7935,
      "needed": 7936,
      "posal": 7937,
      "caller": 7938,
      "ALAW": 7939,
      "strings": 7940,
      "ordinal": 7941,
      "SEND": 7942,
      "Console": 7943,
      "rcpttos": 7944,
      "minate": 7945,
      "statement": 7946,
      "Ġrepla": 7947,
      "Ġ{}\".": 7948,
      "limiters": 7949,
      "Ġparsers": 7950,
      "Locator": 7951,
      "Ġbackup": 7952,
      "Ġbackground": 7953,
      "Ġcolor": 7954,
      "Ġoffline": 7955,
      "ĠConvert": 7956,
      "Ġ&=": 7957,
      "1024": 7958,
      "Ġtempdir": 7959,
      "TestSuite": 7960,
      "Ġdelta": 7961,
      "TERM": 7962,
      "DOUBLE": 7963,
      "ROUPRE": 7964,
      "THER": 7965,
      "popleft": 7966,
      "Ġinitialization": 7967,
      "haust": 7968,
      "srcdir": 7969,
      "ĠQoS": 7970,
      "SHUT": 7971,
      "SHORT": 7972,
      "delitem": 7973,
      "Ġpipeline": 7974,
      "Ġlocked": 7975,
      "Ġdirective": 7976,
      "Ġtransform": 7977,
      "Child": 7978,
      "Ġ2003": 7979,
      "Ġ2006": 7980,
      "xmlrpc": 7981,
      "Ġaccepting": 7982,
      "fieldnames": 7983,
      "supports": 7984,
      "Ġrefused": 7985,
      "documented": 7986,
      "ĠSource": 7987,
      "rgb": 7988,
      "helpers": 7989,
      "Ġ'\\\\'": 7990,
      "https": 7991,
      "Ġidentical": 7992,
      "ĠXcode": 7993,
      "SSLSocket": 7994,
      "Ġimpl": 7995,
      "ĠMapping": 7996,
      "ĠHere": 7997,
      "SIGN": 7998,
      "TextIOWrapper": 7999,
      "Predicate": 8000,
      "ĠAllow": 8001,
      "ParseError": 8002,
      "DEBUGSTREAM": 8003,
      "ĠAsync": 8004,
      "Ġspecification": 8005,
      "Ġcolumns": 8006,
      "OUTINE": 8007,
      "restype": 8008,
      "eedParser": 8009,
      "urrogates": 8010,
      "Ġproduce": 8011,
      "****************************************************************": 8012,
      "FUNCTYPE": 8013,
      "RCCommand": 8014,
      "BEG": 8015,
      "MINATE": 8016,
      "Ġcommonly": 8017,
      "ĠSTD": 8018,
      "platlibdir": 8019,
      "ĠSimpleXMLRPCServer": 8020,
      "features": 8021,
      "vcvarsall": 8022,
      "Ġunicodedata": 8023,
      "Ġtags": 8024,
      "xfb": 8025,
      "Ġeffective": 8026,
      "Ġforkserver": 8027,
      "Transform": 8028,
      "button": 8029,
      "maintain": 8030,
      "Ġtermios": 8031,
      "Ġcycles": 8032,
      "OpenKey": 8033,
      "Subprocess": 8034,
      "BITS": 8035,
      "quitting": 8036,
      "Ġcaught": 8037,
      "IMPORT": 8038,
      "PLAT": 8039,
      "Ġvcvarsall": 8040,
      "Callable": 8041,
      "LineNumber": 8042,
      "Ġsqlalchemy": 8043,
      "cosx": 8044,
      "Ġkept": 8045,
      "Ġolder": 8046,
      "unittest": 8047,
      "edia": 8048,
      "STRUCT": 8049,
      "Failure": 8050,
      "implementation": 8051,
      "ĠWeakSet": 8052,
      "COROUTINE": 8053,
      "SCAPE": 8054,
      "WRAPPED": 8055,
      "ĠAuthentication": 8056,
      "START": 8057,
      "ADDR": 8058,
      "PECIAL": 8059,
      "Ġrecords": 8060,
      "ĠModel": 8061,
      "Ġrecommended": 8062,
      "dependent": 8063,
      "ĠSWIG": 8064,
      "ROUPREF": 8065,
      "'^": 8066,
      "'\",": 8067,
      "(\",": 8068,
      ")(?:": 8069,
      ".',": 8070,
      "/{": 8071,
      "06": 8072,
      "69": 8073,
      "74": 8074,
      "=\\": 8075,
      "Ad": 8076,
      "BAD": 8077,
      "CR": 8078,
      "DN": 8079,
      "GRP": 8080,
      "Guard": 8081,
      "HKEY": 8082,
      "ISC": 8083,
      "Make": 8084,
      "Mutable": 8085,
      "MARK": 8086,
      "OL": 8087,
      "OTE": 8088,
      "PR": 8089,
      "Package": 8090,
      "PServer": 8091,
      "RU": 8092,
      "Ser": 8093,
      "Script": 8094,
      "Table": 8095,
      "Task": 8096,
      "UF": 8097,
      "^^": 8098,
      "_\"": 8099,
      "_,": 8100,
      "aN": 8101,
      "aexit": 8102,
      "bd": 8103,
      "bbrowser": 8104,
      "cdll": 8105,
      "dlen": 8106,
      "equal": 8107,
      "fname": 8108,
      "gauss": 8109,
      "holder": 8110,
      "kpt": 8111,
      "nod": 8112,
      "nop": 8113,
      "napshot": 8114,
      "plist": 8115,
      "pcm": 8116,
      "preamble": 8117,
      "ration": 8118,
      "ssed": 8119,
      "skipping": 8120,
      "scalar": 8121,
      "tm": 8122,
      "tual": 8123,
      "wr": 8124,
      "wit": 8125,
      "Ġmp": 8126,
      "sections": 8127,
      "ining": 8128,
      "invert": 8129,
      "inclusive": 8130,
      "Ġtmp": 8131,
      "onqu": 8132,
      "eror": 8133,
      "erce": 8134,
      "dep": 8135,
      "decoder": 8136,
      "decompress": 8137,
      "metic": 8138,
      "Ġfill": 8139,
      "Ġfact": 8140,
      "Ġframerate": 8141,
      "Ġfigure": 8142,
      "Ġckpt": 8143,
      "alid": 8144,
      "also": 8145,
      "Ġreli": 8146,
      "Ġrelated": 8147,
      "Ġpatches": 8148,
      "Ġsurrogate": 8149,
      "Ġscope": 8150,
      "Ġ'|": 8151,
      "Ġ'?'": 8152,
      "Ġworth": 8153,
      "utting": 8154,
      "role": 8155,
      "Ġmarshal": 8156,
      "Ġddir": 8157,
      "Ġdynamic": 8158,
      "unge": 8159,
      "adpcm": 8160,
      "Ġanchor": 8161,
      "Ġanswer": 8162,
      "pty": 8163,
      "Ġtools": 8164,
      "though": 8165,
      "thropic": 8166,
      "Ġnote": 8167,
      "getsockname": 8168,
      "ĠTemp": 8169,
      "ismatch": 8170,
      "Ġseem": 8171,
      "ised": 8172,
      "entype": 8173,
      "Ġupper": 8174,
      "ection": 8175,
      "Ġorg": 8176,
      "ithmetic": 8177,
      "('#": 8178,
      "ĠSHO": 8179,
      "Ġdec": 8180,
      "Ġ%#": 8181,
      ")).": 8182,
      "))?": 8183,
      "conf": 8184,
      "construct": 8185,
      "Ġ[*": 8186,
      "readmodule": 8187,
      "ĠCTE": 8188,
      "listen": 8189,
      "ĠApiKey": 8190,
      "ĠAnth": 8191
    },
    "merges": [
      [
        "Ġ",
        "Ġ"
      ],
      [
        "ĠĠ",
        "ĠĠ"
      ],
      [
        "ĠĠ",
        "Ġ"
      ],
      [
        "Ċ",
        "ĠĠĠĠ"
      ],
      [
        "s",
        "e"
      ],
      [
        "i",
        "n"
      ],
      [
        "r",
        "e"
      ],
      [
        "ĊĠĠĠĠ",
        "ĠĠĠ"
      ],
      [
        "ĊĠĠĠĠ",
        "ĠĠĠĠ"
      ],
      [
        "Ġ",
        "t"
      ],
      [
        "o",
        "n"
      ],
      [
        "o",
        "r"
      ],
      [
        "e",
        "r"
      ],
      [
        "Ċ",
        "ĠĠĠ"
      ],
      [
        "a",
        "t"
      ],
      [
        "Ġ",
        "i"
      ],
      [
        "s",
        "t"
      ],
      [
        "l",
        "e"
      ],
      [
        "Ġ",
        "a"
      ],
      [
        "Ġ",
        "="
      ],
      [
        "l",
        "f"
      ],
      [
        "se",
        "lf"
      ],
      [
        "d",
        "e"
      ],
      [
        "h",
        "e"
      ],
      [
        "m",
        "e"
      ],
      [
        "Ġ",
        "f"
      ],
      [
        "Ġ",
        "c"
      ],
      [
        "ĠĠĠĠ",
        "ĠĠĠĠ"
      ],
      [
        "ĊĠĠĠĠĠĠĠĠ",
        "ĠĠĠ"
      ],
      [
        "a",
        "l"
      ],
      [
        "a",
        "r"
      ],
      [
        "Ġ",
        "self"
      ],
      [
        "e",
        "n"
      ],
      [
        "Ġ",
        "re"
      ],
      [
        "\"",
        "\""
      ],
      [
        "i",
        "t"
      ],
      [
        "Ġt",
        "he"
      ],
      [
        "u",
        "r"
      ],
      [
        "c",
        "e"
      ],
      [
        "Ġ",
        "p"
      ],
      [
        "Ġ",
        "o"
      ],
      [
        "Ġ",
        "s"
      ],
      [
        "Ġ",
        "n"
      ],
      [
        "Ġ",
        "b"
      ],
      [
        "Ġ",
        "'"
      ],
      [
        ")",
        ":"
      ],
      [
        "i",
        "on"
      ],
      [
        "Ġ",
        "e"
      ],
      [
        "a",
        "n"
      ],
      [
        "in",
        "g"
      ],
      [
        "-",
        "-"
      ],
      [
        "Ġ",
        "in"
      ],
      [
        "Ġi",
        "f"
      ],
      [
        "c",
        "t"
      ],
      [
        "a",
        "me"
      ],
      [
        "Ġ",
        "w"
      ],
      [
        "m",
        "p"
      ],
      [
        "Ġ",
        "#"
      ],
      [
        ".",
        "_"
      ],
      [
        "u",
        "t"
      ],
      [
        "ĠĠĠĠ",
        "ĠĠĠ"
      ],
      [
        "de",
        "f"
      ],
      [
        "r",
        "o"
      ],
      [
        "Ġ",
        "_"
      ],
      [
        "ur",
        "n"
      ],
      [
        "t",
        "urn"
      ],
      [
        "l",
        "o"
      ],
      [
        "s",
        "s"
      ],
      [
        "Ġ",
        "m"
      ],
      [
        "Ċ",
        "ĊĠĠĠ"
      ],
      [
        "i",
        "le"
      ],
      [
        "o",
        "t"
      ],
      [
        "Ġi",
        "s"
      ],
      [
        "ĊĠĠĠĠĠĠĠĠ",
        "ĠĠĠĠĠĠĠ"
      ],
      [
        "Ġ",
        "d"
      ],
      [
        "u",
        "n"
      ],
      [
        "Ġre",
        "turn"
      ],
      [
        "l",
        "i"
      ],
      [
        "u",
        "e"
      ],
      [
        "c",
        "o"
      ],
      [
        "g",
        "e"
      ],
      [
        "(",
        ")"
      ],
      [
        "a",
        "d"
      ],
      [
        "on",
        "e"
      ],
      [
        "e",
        "d"
      ],
      [
        "ĊĠĠĠĠĠĠĠĠ",
        "ĠĠĠĠĠĠĠĠ"
      ],
      [
        "Ġ",
        "def"
      ],
      [
        "\"\"",
        "\""
      ],
      [
        "i",
        "l"
      ],
      [
        "c",
        "k"
      ],
      [
        "r",
        "a"
      ],
      [
        "Ġa",
        "n"
      ],
      [
        "Ġ",
        "("
      ],
      [
        "p",
        "t"
      ],
      [
        "Ġt",
        "o"
      ],
      [
        "n",
        "t"
      ],
      [
        "N",
        "one"
      ],
      [
        "l",
        "a"
      ],
      [
        "Ġ",
        "\""
      ],
      [
        "n",
        "ame"
      ],
      [
        "or",
        "t"
      ],
      [
        "e",
        "s"
      ],
      [
        "t",
        "h"
      ],
      [
        "'",
        ","
      ],
      [
        "e",
        "x"
      ],
      [
        "u",
        "l"
      ],
      [
        "Ġf",
        "or"
      ],
      [
        "_",
        "_"
      ],
      [
        "r",
        "or"
      ],
      [
        "Ġ",
        "st"
      ],
      [
        "p",
        "e"
      ],
      [
        "c",
        "h"
      ],
      [
        "Ġn",
        "ot"
      ],
      [
        "Ġe",
        "x"
      ],
      [
        "--",
        "--"
      ],
      [
        "o",
        "d"
      ],
      [
        "Ġ",
        "\"\"\""
      ],
      [
        "at",
        "h"
      ],
      [
        "Ġ",
        "None"
      ],
      [
        "l",
        "in"
      ],
      [
        "Ġo",
        "f"
      ],
      [
        "Ġan",
        "d"
      ],
      [
        "d",
        "i"
      ],
      [
        "ge",
        "t"
      ],
      [
        "p",
        "p"
      ],
      [
        "Ġ",
        "T"
      ],
      [
        "Ġc",
        "o"
      ],
      [
        "v",
        "er"
      ],
      [
        "Ġt",
        "h"
      ],
      [
        "i",
        "s"
      ],
      [
        "E",
        "r"
      ],
      [
        "Er",
        "ror"
      ],
      [
        "r",
        "i"
      ],
      [
        "al",
        "l"
      ],
      [
        "v",
        "al"
      ],
      [
        "Ġb",
        "e"
      ],
      [
        "t",
        "er"
      ],
      [
        "Ġ",
        "se"
      ],
      [
        "v",
        "e"
      ],
      [
        "at",
        "e"
      ],
      [
        "mp",
        "ort"
      ],
      [
        "an",
        "d"
      ],
      [
        "k",
        "e"
      ],
      [
        "at",
        "a"
      ],
      [
        "Ċ",
        "ĊĠĠĠĠĠĠĠ"
      ],
      [
        "Ġ",
        "h"
      ],
      [
        "f",
        "ile"
      ],
      [
        "f",
        "i"
      ],
      [
        "ul",
        "t"
      ],
      [
        "a",
        "s"
      ],
      [
        "ex",
        "t"
      ],
      [
        "Ġf",
        "ile"
      ],
      [
        "a",
        "b"
      ],
      [
        "#",
        "#"
      ],
      [
        "me",
        "nt"
      ],
      [
        "en",
        "d"
      ],
      [
        "Ġc",
        "on"
      ],
      [
        "ce",
        "pt"
      ],
      [
        "a",
        "ck"
      ],
      [
        "i",
        "se"
      ],
      [
        "ĊĠĠĠĠĠĠĠĠĠĠĠĠĠĠĠĠ",
        "ĠĠĠ"
      ],
      [
        "Ġ",
        "0"
      ],
      [
        "ro",
        "m"
      ],
      [
        "\"",
        ","
      ],
      [
        "la",
        "ss"
      ],
      [
        "o",
        "p"
      ],
      [
        "en",
        "t"
      ],
      [
        "Ġ",
        "u"
      ],
      [
        "Ġ",
        "1"
      ],
      [
        "se",
        "r"
      ],
      [
        "Ġ",
        "+"
      ],
      [
        "i",
        "z"
      ],
      [
        "e",
        "ct"
      ],
      [
        "p",
        "ath"
      ],
      [
        "lin",
        "e"
      ],
      [
        "Ġ",
        "or"
      ],
      [
        "a",
        "se"
      ],
      [
        "Ġ",
        "ra"
      ],
      [
        "i",
        "st"
      ],
      [
        "it",
        "h"
      ],
      [
        "(",
        "'"
      ],
      [
        "val",
        "ue"
      ],
      [
        "at",
        "ion"
      ],
      [
        "b",
        "j"
      ],
      [
        "Ġa",
        "s"
      ],
      [
        "'",
        ")"
      ],
      [
        "g",
        "s"
      ],
      [
        "y",
        "pe"
      ],
      [
        "m",
        "a"
      ],
      [
        "s",
        "p"
      ],
      [
        "Ġra",
        "ise"
      ],
      [
        "l",
        "se"
      ],
      [
        "Ġ",
        "I"
      ],
      [
        "r",
        "y"
      ],
      [
        "i",
        "d"
      ],
      [
        "Ġe",
        "lse"
      ],
      [
        "Ġi",
        "t"
      ],
      [
        "co",
        "de"
      ],
      [
        "Ġ",
        "S"
      ],
      [
        "i",
        "me"
      ],
      [
        "Ġ",
        "de"
      ],
      [
        "Ġ",
        "lo"
      ],
      [
        "se",
        "t"
      ],
      [
        "Ġn",
        "ame"
      ],
      [
        "Ġ=",
        "="
      ],
      [
        "it",
        "e"
      ],
      [
        "Ġ_",
        "_"
      ],
      [
        "Ġ",
        "me"
      ],
      [
        "Ġm",
        "a"
      ],
      [
        "'",
        ":"
      ],
      [
        "Ġ",
        "%"
      ],
      [
        "Ġ",
        "-"
      ],
      [
        "y",
        "s"
      ],
      [
        "(",
        "\""
      ],
      [
        "u",
        "p"
      ],
      [
        "u",
        "le"
      ],
      [
        "Ġb",
        "y"
      ],
      [
        ")",
        ")"
      ],
      [
        "c",
        "on"
      ],
      [
        "f",
        "f"
      ],
      [
        "----",
        "----"
      ],
      [
        "er",
        "s"
      ],
      [
        "l",
        "y"
      ],
      [
        "t",
        "o"
      ],
      [
        "*",
        "*"
      ],
      [
        "u",
        "m"
      ],
      [
        "Ġ",
        "["
      ],
      [
        "le",
        "n"
      ],
      [
        "ct",
        "ion"
      ],
      [
        "ab",
        "le"
      ],
      [
        "re",
        "ad"
      ],
      [
        "ar",
        "t"
      ],
      [
        "od",
        "ule"
      ],
      [
        "Ġs",
        "o"
      ],
      [
        "iz",
        "e"
      ],
      [
        "s",
        "o"
      ],
      [
        "Ġi",
        "mport"
      ],
      [
        "Ċ",
        "Ċ"
      ],
      [
        "ĊĠĠĠĠĠĠĠĠĠĠĠĠĠĠĠĠ",
        "ĠĠĠĠĠĠĠĠ"
      ],
      [
        "Ġst",
        "r"
      ],
      [
        "Ġ",
        "C"
      ],
      [
        "li",
        "st"
      ],
      [
        "Ġ",
        "F"
      ],
      [
        "R",
        "e"
      ],
      [
        "Ġd",
        "i"
      ],
      [
        "Ġ",
        "A"
      ],
      [
        "a",
        "ge"
      ],
      [
        "Ġex",
        "cept"
      ],
      [
        "f",
        "or"
      ],
      [
        "c",
        "lass"
      ],
      [
        "\"",
        ")"
      ],
      [
        "Ġa",
        "l"
      ],
      [
        "Ġp",
        "ro"
      ],
      [
        "an",
        "ce"
      ],
      [
        "Ġw",
        "ith"
      ],
      [
        "Ġ",
        "g"
      ],
      [
        "t",
        "e"
      ],
      [
        "b",
        "u"
      ],
      [
        "o",
        "ut"
      ],
      [
        "mp",
        "le"
      ],
      [
        "di",
        "r"
      ],
      [
        "Ġs",
        "u"
      ],
      [
        "in",
        "t"
      ],
      [
        "li",
        "b"
      ],
      [
        "o",
        "de"
      ],
      [
        "e",
        "t"
      ],
      [
        "Ġa",
        "r"
      ],
      [
        "bj",
        "ect"
      ],
      [
        "Ġc",
        "h"
      ],
      [
        "Ġ",
        "r"
      ],
      [
        "ke",
        "y"
      ],
      [
        "=",
        "="
      ],
      [
        "t",
        "r"
      ],
      [
        "u",
        "re"
      ],
      [
        "Ġ",
        "P"
      ],
      [
        "se",
        "d"
      ],
      [
        "a",
        "pp"
      ],
      [
        "Ġth",
        "at"
      ],
      [
        "__",
        "("
      ],
      [
        "._",
        "_"
      ],
      [
        "d",
        "ata"
      ],
      [
        "Ġ",
        "value"
      ],
      [
        "o",
        "s"
      ],
      [
        "Ġf",
        "rom"
      ],
      [
        "e",
        "l"
      ],
      [
        "th",
        "od"
      ],
      [
        "Ġ",
        "en"
      ],
      [
        "Ġt",
        "ry"
      ],
      [
        "Ġo",
        "s"
      ],
      [
        "Ġ",
        "on"
      ],
      [
        "re",
        "a"
      ],
      [
        "Ġn",
        "e"
      ],
      [
        "q",
        "u"
      ],
      [
        "Ġd",
        "ata"
      ],
      [
        "pt",
        "ion"
      ],
      [
        "o",
        "l"
      ],
      [
        "s",
        "ion"
      ],
      [
        "Ġw",
        "h"
      ],
      [
        "st",
        "r"
      ],
      [
        "o",
        "w"
      ],
      [
        "Ġcon",
        "t"
      ],
      [
        "r",
        "ue"
      ],
      [
        "c",
        "he"
      ],
      [
        "m",
        "at"
      ],
      [
        "Ġ",
        "*"
      ],
      [
        "m",
        "s"
      ],
      [
        "##",
        "##"
      ],
      [
        "ct",
        "or"
      ],
      [
        "i",
        "r"
      ],
      [
        "il",
        "d"
      ],
      [
        "Ġ",
        "get"
      ],
      [
        "ar",
        "y"
      ],
      [
        "i",
        "g"
      ],
      [
        "ce",
        "ss"
      ],
      [
        "p",
        "re"
      ],
      [
        "c",
        "i"
      ],
      [
        "p",
        "ro"
      ],
      [
        "f",
        "o"
      ],
      [
        "ad",
        "er"
      ],
      [
        "ar",
        "gs"
      ],
      [
        "s",
        "ult"
      ],
      [
        "Ġ",
        "he"
      ],
      [
        "Ġp",
        "ath"
      ],
      [
        "ĠT",
        "he"
      ],
      [
        "er",
        "ror"
      ],
      [
        "Ġ",
        "line"
      ],
      [
        "p",
        "ut"
      ],
      [
        "i",
        "c"
      ],
      [
        "Ġ",
        "D"
      ],
      [
        "p",
        "y"
      ],
      [
        "c",
        "a"
      ],
      [
        "ur",
        "ce"
      ],
      [
        "a",
        "ult"
      ],
      [
        "f",
        "rom"
      ],
      [
        "R",
        "E"
      ],
      [
        "Ġo",
        "bject"
      ],
      [
        "a",
        "ce"
      ],
      [
        "re",
        "nt"
      ],
      [
        "Ġa",
        "re"
      ],
      [
        "Ġth",
        "is"
      ],
      [
        "in",
        "st"
      ],
      [
        "r",
        "ite"
      ],
      [
        "0",
        "0"
      ],
      [
        "Ġse",
        "t"
      ],
      [
        "t",
        "es"
      ],
      [
        "fi",
        "x"
      ],
      [
        "Ġw",
        "e"
      ],
      [
        "c",
        "l"
      ],
      [
        "Ġ",
        "2"
      ],
      [
        "p",
        "ar"
      ],
      [
        "i",
        "mport"
      ],
      [
        "I",
        "N"
      ],
      [
        "q",
        "ue"
      ],
      [
        "Ġd",
        "o"
      ],
      [
        "d",
        "ing"
      ],
      [
        "s",
        "h"
      ],
      [
        "or",
        "k"
      ],
      [
        ")",
        ","
      ],
      [
        "u",
        "ment"
      ],
      [
        "Ġ",
        "N"
      ],
      [
        "al",
        "se"
      ],
      [
        "Ġ",
        "O"
      ],
      [
        "t",
        "ime"
      ],
      [
        "Ġs",
        "ys"
      ],
      [
        "Ġ",
        "M"
      ],
      [
        "in",
        "d"
      ],
      [
        "th",
        "on"
      ],
      [
        "r",
        "ame"
      ],
      [
        "i",
        "ve"
      ],
      [
        "Ġ",
        "E"
      ],
      [
        ".",
        "\"\"\""
      ],
      [
        "co",
        "mp"
      ],
      [
        "Ġ",
        "un"
      ],
      [
        "m",
        "m"
      ],
      [
        "Ġp",
        "a"
      ],
      [
        "at",
        "or"
      ],
      [
        "in",
        "it"
      ],
      [
        "app",
        "end"
      ],
      [
        "Ġb",
        "u"
      ],
      [
        "re",
        "d"
      ],
      [
        "Ġ",
        "at"
      ],
      [
        "li",
        "f"
      ],
      [
        "ĊĠĠĠĠĠĠĠĠĠĠĠĠĠĠĠĠ",
        "ĠĠĠĠĠĠĠ"
      ],
      [
        "b",
        "ack"
      ],
      [
        "Ġf",
        "un"
      ],
      [
        "Ġm",
        "odule"
      ],
      [
        "Ġ",
        "len"
      ],
      [
        "t",
        "y"
      ],
      [
        "Ġ",
        "<"
      ],
      [
        "Ġs",
        "h"
      ],
      [
        "th",
        "er"
      ],
      [
        "Ġp",
        "re"
      ],
      [
        "il",
        "l"
      ],
      [
        "Ġ",
        "{"
      ],
      [
        "E",
        "R"
      ],
      [
        "Ġ",
        "list"
      ],
      [
        "ri",
        "b"
      ],
      [
        "i",
        "p"
      ],
      [
        "Ġe",
        "lif"
      ],
      [
        "d",
        "s"
      ],
      [
        "Ġ",
        "y"
      ],
      [
        "Ġp",
        "ar"
      ],
      [
        "Ġ",
        "W"
      ],
      [
        "u",
        "st"
      ],
      [
        "ver",
        "sion"
      ],
      [
        "Ġco",
        "mp"
      ],
      [
        "n",
        "o"
      ],
      [
        ")",
        "."
      ],
      [
        "l",
        "at"
      ],
      [
        "lo",
        "w"
      ],
      [
        "r",
        "int"
      ],
      [
        "rib",
        "ut"
      ],
      [
        "s",
        "ize"
      ],
      [
        "t",
        "ype"
      ],
      [
        "d",
        "er"
      ],
      [
        "ad",
        "d"
      ],
      [
        "t",
        "ext"
      ],
      [
        "Ġstr",
        "ing"
      ],
      [
        "n",
        "ing"
      ],
      [
        "Ġc",
        "an"
      ],
      [
        "Ġo",
        "ut"
      ],
      [
        "c",
        "ur"
      ],
      [
        "Ġme",
        "thod"
      ],
      [
        "k",
        "en"
      ],
      [
        "w",
        "a"
      ],
      [
        "Ġin",
        "st"
      ],
      [
        "it",
        "er"
      ],
      [
        "Ġt",
        "ime"
      ],
      [
        "Ġw",
        "he"
      ],
      [
        "le",
        "d"
      ],
      [
        "Ġre",
        "sult"
      ],
      [
        "m",
        "b"
      ],
      [
        "Ġa",
        "d"
      ],
      [
        "v",
        "i"
      ],
      [
        "Ġar",
        "g"
      ],
      [
        "ut",
        "il"
      ],
      [
        "li",
        "c"
      ],
      [
        "v",
        "ar"
      ],
      [
        "and",
        "l"
      ],
      [
        "e",
        "st"
      ],
      [
        "re",
        "ss"
      ],
      [
        "Ġh",
        "as"
      ],
      [
        "u",
        "s"
      ],
      [
        "v",
        "ent"
      ],
      [
        "Re",
        "turn"
      ],
      [
        "Ġ",
        ">"
      ],
      [
        "ĠI",
        "f"
      ],
      [
        "un",
        "d"
      ],
      [
        "Ġne",
        "w"
      ],
      [
        "O",
        "N"
      ],
      [
        "]",
        ")"
      ],
      [
        "se",
        "s"
      ],
      [
        "'",
        "t"
      ],
      [
        "Ġw",
        "ill"
      ],
      [
        "Ġ",
        "key"
      ],
      [
        "co",
        "ding"
      ],
      [
        "ĠT",
        "rue"
      ],
      [
        "--------",
        "--------"
      ],
      [
        "Ġ",
        "L"
      ],
      [
        "t",
        "a"
      ],
      [
        "Ġc",
        "all"
      ],
      [
        "w",
        "rite"
      ],
      [
        "j",
        "o"
      ],
      [
        "Ġ",
        "l"
      ],
      [
        "b",
        "ase"
      ],
      [
        "Ġ",
        "--"
      ],
      [
        "ter",
        "n"
      ],
      [
        "lo",
        "se"
      ],
      [
        "Ġ",
        "le"
      ],
      [
        "e",
        "c"
      ],
      [
        "Ġo",
        "p"
      ],
      [
        "e",
        "m"
      ],
      [
        "ul",
        "d"
      ],
      [
        "Ġ",
        "U"
      ],
      [
        "Ġ",
        "R"
      ],
      [
        "lo",
        "ck"
      ],
      [
        "mple",
        "ment"
      ],
      [
        "M",
        "E"
      ],
      [
        "Ġ",
        "."
      ],
      [
        "h",
        "is"
      ],
      [
        "Ġ",
        "B"
      ],
      [
        "Ġ",
        "V"
      ],
      [
        "m",
        "o"
      ],
      [
        "A",
        "T"
      ],
      [
        "de",
        "d"
      ],
      [
        "s",
        "u"
      ],
      [
        "Ġre",
        "ad"
      ],
      [
        "ĊĠĠĠĠĠĠĠĠĠĠĠĠĠĠĠĠĠĠĠĠĠĠĠĠ",
        "ĠĠĠĠĠĠĠĠ"
      ],
      [
        "y",
        "thon"
      ],
      [
        "Ġ",
        "error"
      ],
      [
        "`",
        "`"
      ],
      [
        "Ġt",
        "ype"
      ],
      [
        "Ġo",
        "ther"
      ],
      [
        "m",
        "odule"
      ],
      [
        "H",
        "A"
      ],
      [
        "i",
        "f"
      ],
      [
        "ack",
        "age"
      ],
      [
        "all",
        "y"
      ],
      [
        "rea",
        "m"
      ],
      [
        "(",
        "):"
      ],
      [
        "S",
        "T"
      ],
      [
        "jo",
        "in"
      ],
      [
        "un",
        "k"
      ],
      [
        "Ġ",
        "lin"
      ],
      [
        "Ġc",
        "lass"
      ],
      [
        "p",
        "a"
      ],
      [
        "fi",
        "g"
      ],
      [
        "at",
        "ed"
      ],
      [
        "at",
        "tr"
      ],
      [
        "cept",
        "ion"
      ],
      [
        "==",
        "=="
      ],
      [
        "inst",
        "ance"
      ],
      [
        "ĠF",
        "alse"
      ],
      [
        "ve",
        "l"
      ],
      [
        "co",
        "l"
      ],
      [
        "Ġal",
        "l"
      ],
      [
        "Ġ",
        "k"
      ],
      [
        "and",
        "le"
      ],
      [
        "en",
        "er"
      ],
      [
        "um",
        "b"
      ],
      [
        "at",
        "ch"
      ],
      [
        "ff",
        "er"
      ],
      [
        "a",
        "ct"
      ],
      [
        "**",
        "**"
      ],
      [
        "mm",
        "and"
      ],
      [
        "t",
        "ra"
      ],
      [
        "al",
        "ue"
      ],
      [
        "Ġp",
        "rint"
      ],
      [
        ":",
        "'"
      ],
      [
        "'",
        "'"
      ],
      [
        "L",
        "E"
      ],
      [
        "ck",
        "et"
      ],
      [
        "i",
        "b"
      ],
      [
        "pe",
        "ci"
      ],
      [
        "ss",
        "age"
      ],
      [
        "andl",
        "er"
      ],
      [
        "re",
        "ctor"
      ],
      [
        "####",
        "####"
      ],
      [
        "ut",
        "ure"
      ],
      [
        "c",
        "al"
      ],
      [
        "g",
        "ist"
      ],
      [
        "o",
        "uld"
      ],
      [
        "i",
        "ch"
      ],
      [
        "'",
[...]
